
#ifndef IMPROVED_HEALTH_MODEL_H
#define IMPROVED_HEALTH_MODEL_H

// 改進版健康AI模型 - 基於醫學指南訓練
// 模型大小: 20728 bytes
// 訓練數據: 50,000筆醫學合理的健康記錄

const unsigned char improved_health_model_data[] = {
0x20, 0x00, 0x00, 0x00, 0x54, 0x46, 0x4c, 0x33, 0x00, 0x00, 0x00, 0x00, 0x14, 0x00, 0x20, 0x00, 0x1c, 0x00, 0x18, 0x00, 0x14, 0x00, 0x10, 0x00, 0x0c, 0x00, 0x00, 0x00, 0x08, 0x00, 0x04, 0x00, 0x14, 0x00, 0x00, 0x00, 0x1c, 0x00, 0x00, 0x00, 0x84, 0x00, 0x00, 0x00, 0xdc, 0x00, 0x00, 0x00, 0x60, 0x45, 0x00, 0x00, 0x70, 0x45, 0x00, 0x00, 0x80, 0x50, 0x00, 0x00, 0x03, 0x00, 0x00, 0x00, 0x01, 0x00, 0x00, 0x00, 0x04, 0x00, 0x00, 0x00, 0x4a, 0xba, 0xff, 0xff, 0x0c, 0x00, 0x00, 0x00, 0x1c, 0x00, 0x00, 0x00, 0x38, 0x00, 0x00, 0x00, 0x0f, 0x00, 0x00, 0x00, 0x73, 0x65, 0x72, 0x76, 0x69, 0x6e, 0x67, 0x5f, 0x64, 0x65, 0x66, 0x61, 0x75, 0x6c, 0x74, 0x00, 0x01, 0x00, 0x00, 0x00, 0x04, 0x00, 0x00, 0x00, 0x98, 0xff, 0xff, 0xff, 0x10, 0x00, 0x00, 0x00, 0x04, 0x00, 0x00, 0x00, 0x07, 0x00, 0x00, 0x00, 0x64, 0x65, 0x6e, 0x73, 0x65, 0x5f, 0x34, 0x00, 0x01, 0x00, 0x00, 0x00, 0x04, 0x00, 0x00, 0x00, 0x5e, 0xbc, 0xff, 0xff, 0x04, 0x00, 0x00, 0x00, 0x0b, 0x00, 0x00, 0x00, 0x64, 0x65, 0x6e, 0x73, 0x65, 0x5f, 0x69, 0x6e, 0x70, 0x75, 0x74, 0x00, 0x02, 0x00, 0x00, 0x00, 0x34, 0x00, 0x00, 0x00, 0x04, 0x00, 0x00, 0x00, 0xdc, 0xff, 0xff, 0xff, 0x13, 0x00, 0x00, 0x00, 0x04, 0x00, 0x00, 0x00, 0x13, 0x00, 0x00, 0x00, 0x43, 0x4f, 0x4e, 0x56, 0x45, 0x52, 0x53, 0x49, 0x4f, 0x4e, 0x5f, 0x4d, 0x45, 0x54, 0x41, 0x44, 0x41, 0x54, 0x41, 0x00, 0x08, 0x00, 0x0c, 0x00, 0x08, 0x00, 0x04, 0x00, 0x08, 0x00, 0x00, 0x00, 0x12, 0x00, 0x00, 0x00, 0x04, 0x00, 0x00, 0x00, 0x13, 0x00, 0x00, 0x00, 0x6d, 0x69, 0x6e, 0x5f, 0x72, 0x75, 0x6e, 0x74, 0x69, 0x6d, 0x65, 0x5f, 0x76, 0x65, 0x72, 0x73, 0x69, 0x6f, 0x6e, 0x00, 0x14, 0x00, 0x00, 0x00, 0x80, 0x44, 0x00, 0x00, 0x78, 0x44, 0x00, 0x00, 0x28, 0x43, 0x00, 0x00, 0x10, 0x3b, 0x00, 0x00, 0x00, 0x2d, 0x00, 0x00, 0xb0, 0x2c, 0x00, 0x00, 0x8c, 0x2c, 0x00, 0x00, 0x7c, 0x2a, 0x00, 0x00, 0xec, 0x29, 0x00, 0x00, 0xdc, 0x28, 0x00, 0x00, 0xcc, 0x08, 0x00, 0x00, 0xbc, 0x00, 0x00, 0x00, 0xb4, 0x00, 0x00, 0x00, 0xac, 0x00, 0x00, 0x00, 0xa4, 0x00, 0x00, 0x00, 0x9c, 0x00, 0x00, 0x00, 0x94, 0x00, 0x00, 0x00, 0x8c, 0x00, 0x00, 0x00, 0x6c, 0x00, 0x00, 0x00, 0x04, 0x00, 0x00, 0x00, 0x26, 0xbd, 0xff, 0xff, 0x04, 0x00, 0x00, 0x00, 0x58, 0x00, 0x00, 0x00, 0x0c, 0x00, 0x00, 0x00, 0x08, 0x00, 0x0e, 0x00, 0x08, 0x00, 0x04, 0x00, 0x08, 0x00, 0x00, 0x00, 0x10, 0x00, 0x00, 0x00, 0x28, 0x00, 0x00, 0x00, 0x00, 0x00, 0x06, 0x00, 0x08, 0x00, 0x04, 0x00, 0x06, 0x00, 0x00, 0x00, 0x04, 0x00, 0x00, 0x00, 0x01, 0x00, 0x00, 0x00, 0xea, 0x03, 0x00, 0x00, 0x00, 0x00, 0x0a, 0x00, 0x10, 0x00, 0x0c, 0x00, 0x08, 0x00, 0x04, 0x00, 0x0a, 0x00, 0x00, 0x00, 0x02, 0x00, 0x00, 0x00, 0x02, 0x00, 0x00, 0x00, 0x04, 0x00, 0x00, 0x00, 0x06, 0x00, 0x00, 0x00, 0x32, 0x2e, 0x31, 0x33, 0x2e, 0x30, 0x00, 0x00, 0x8a, 0xbd, 0xff, 0xff, 0x04, 0x00, 0x00, 0x00, 0x10, 0x00, 0x00, 0x00, 0x32, 0x2e, 0x33, 0x2e, 0x30, 0x00, 0x00, 0x00, 0x00, 0x00, 0x00, 0x00, 0x00, 0x00, 0x00, 0x00, 0x5c, 0xb1, 0xff, 0xff, 0x60, 0xb1, 0xff, 0xff, 0x64, 0xb1, 0xff, 0xff, 0x68, 0xb1, 0xff, 0xff, 0x6c, 0xb1, 0xff, 0xff, 0x70, 0xb1, 0xff, 0xff, 0xbe, 0xbd, 0xff, 0xff, 0x04, 0x00, 0x00, 0x00, 0x00, 0x08, 0x00, 0x00, 0x04, 0xf9, 0x00, 0x00, 0xfe, 0xfd, 0xff, 0x01, 0xff, 0xf6, 0x04, 0xfd, 0x03, 0x00, 0xfb, 0x0a, 0x08, 0x00, 0x02, 0xfc, 0xfc, 0xfa, 0x09, 0xff, 0xff, 0x01, 0x00, 0xfe, 0xfc, 0xff, 0xff, 0xff, 0xfa, 0xfb, 0x04, 0x0a, 0xff, 0xfe, 0xfe, 0x00, 0x04, 0x02, 0xfc, 0xfd, 0x01, 0xfc, 0x01, 0x0d, 0xff, 0xfe, 0x03, 0x0a, 0x1e, 0x01, 0xfb, 0x03, 0x00, 0x00, 0xf5, 0xfb, 0x00, 0x03, 0x0e, 0x06, 0x01, 0x00, 0x00, 0x07, 0x03, 0xff, 0xfe, 0x05, 0x00, 0xff, 0xf4, 0xff, 0x01, 0x02, 0xfc, 0x02, 0xf4, 0x06, 0xfb, 0x02, 0x08, 0x00, 0xff, 0x01, 0x04, 0x02, 0x00, 0x00, 0x00, 0xfe, 0xf0, 0xfb, 0xfb, 0xfc, 0xf6, 0xff, 0x01, 0xff, 0x02, 0xfe, 0xf4, 0x07, 0x01, 0x09, 0x01, 0x04, 0xfa, 0xfe, 0xff, 0xfa, 0x02, 0x01, 0x04, 0xff, 0xfe, 0xf4, 0x02, 0xfe, 0xfa, 0x00, 0xfd, 0x01, 0xb6, 0x02, 0x01, 0x00, 0x00, 0x01, 0x04, 0x00, 0xff, 0xff, 0x02, 0x02, 0xe2, 0x06, 0x02, 0x01, 0x00, 0x00, 0xf5, 0x06, 0xfd, 0xfd, 0xfd, 0xf7, 0xf9, 0x00, 0x06, 0x07, 0x00, 0xfc, 0x02, 0xfd, 0xf4, 0xfb, 0xfe, 0x00, 0xf3, 0xf9, 0x01, 0xff, 0x02, 0xfe, 0xf4, 0x05, 0xf6, 0x04, 0x03, 0xff, 0xfe, 0x03, 0x01, 0xff, 0x04, 0xff, 0x03, 0xff, 0x00, 0xff, 0x03, 0x07, 0xf3, 0x00, 0xfe, 0xff, 0x81, 0xfc, 0xff, 0x00, 0xfa, 0xfe, 0x04, 0x01, 0xff, 0xfa, 0x00, 0x01, 0x02, 0xfa, 0xfe, 0x02, 0xfc, 0xfb, 0x04, 0xfd, 0x01, 0xfd, 0xfd, 0xfe, 0x04, 0x03, 0x01, 0xfe, 0x01, 0x01, 0x03, 0xf8, 0x09, 0xfe, 0xfe, 0x04, 0x04, 0x00, 0x00, 0x00, 0x03, 0x00, 0xf8, 0x04, 0xfa, 0xf9, 0x02, 0xf5, 0x03, 0xff, 0x00, 0xfe, 0xff, 0xf9, 0x09, 0x04, 0xfc, 0x08, 0x00, 0xff, 0xf4, 0xfb, 0xfb, 0x00, 0xff, 0x0b, 0xff, 0x00, 0x02, 0x00, 0xfe, 0xfc, 0xfe, 0xff, 0x00, 0x00, 0xff, 0x06, 0x02, 0x00, 0x01, 0x00, 0xfc, 0x02, 0xfb, 0xff, 0xfe, 0xf3, 0x00, 0xfe, 0xff, 0x02, 0xfc, 0x00, 0x04, 0x03, 0xfd, 0x00, 0x03, 0xfb, 0x01, 0xff, 0x00, 0xff, 0xfe, 0x00, 0x09, 0x02, 0x07, 0x08, 0xf3, 0x02, 0xfd, 0xfc, 0xfd, 0x01, 0xfe, 0x04, 0xfa, 0xf9, 0x07, 0xfa, 0x00, 0x00, 0x0b, 0x02, 0x01, 0x03, 0x0a, 0xfe, 0x03, 0x00, 0x02, 0xff, 0xfe, 0x00, 0x01, 0x04, 0xff, 0xfc, 0xe3, 0xfb, 0x07, 0xfc, 0x04, 0x07, 0x07, 0x02, 0xfd, 0xf4, 0xf4, 0xf7, 0xfd, 0xff, 0x01, 0x00, 0x00, 0x01, 0xfc, 0x04, 0x0a, 0x01, 0xfb, 0x0a, 0x03, 0x02, 0xfd, 0x00, 0x00, 0x03, 0x02, 0xfb, 0xec, 0xe7, 0xef, 0xe3, 0xe4, 0x01, 0x01, 0xfb, 0xff, 0x07, 0x02, 0x02, 0xff, 0x05, 0x01, 0xf7, 0xed, 0xff, 0xf8, 0x04, 0xe5, 0xf3, 0xfc, 0x01, 0x00, 0xfd, 0x02, 0x01, 0x01, 0x01, 0xfa, 0xf1, 0x05, 0x02, 0xfd, 0xff, 0x00, 0xf1, 0x00, 0xfd, 0xf2, 0xf8, 0xe9, 0xfc, 0x00, 0x04, 0xff, 0xfa, 0xfd, 0xe0, 0x05, 0xfd, 0x0f, 0xff, 0xfe, 0x09, 0xfe, 0x11, 0xfd, 0x00, 0x04, 0xff, 0x00, 0x05, 0xff, 0xfd, 0x06, 0xfe, 0x13, 0xff, 0x02, 0xfc, 0xf3, 0x00, 0xfe, 0x01, 0xf8, 0x06, 0x00, 0xef, 0x05, 0x00, 0x0e, 0x00, 0xf8, 0x02, 0x00, 0x00, 0x01, 0xf7, 0xfd, 0x02, 0x00, 0xfb, 0xfd, 0x02, 0x03, 0xfa, 0xfc, 0x01, 0x07, 0x00, 0x01, 0xfe, 0xff, 0xfa, 0xfd, 0xe9, 0xfc, 0x03, 0xfe, 0x01, 0x00, 0x02, 0xfe, 0xf6, 0x12, 0x01, 0xfc, 0x07, 0xfe, 0xf8, 0xfd, 0x01, 0xfd, 0xff, 0x00, 0xff, 0xfe, 0xfb, 0xf7, 0xed, 0x00, 0xfc, 0x01, 0xf9, 0xfd, 0xfa, 0xfd, 0x02, 0x07, 0xf4, 0xff, 0xfd, 0x02, 0xff, 0x01, 0xff, 0x07, 0xfa, 0xfe, 0xfe, 0xfe, 0x01, 0xfe, 0x06, 0xfe, 0x04, 0x00, 0x03, 0x01, 0x00, 0x0d, 0x00, 0x01, 0xfc, 0xf9, 0x00, 0x03, 0xfa, 0x00, 0x0d, 0x03, 0x02, 0xfe, 0xfd, 0xff, 0x03, 0x02, 0x01, 0xfc, 0x02, 0x09, 0x02, 0xfe, 0xfb, 0xff, 0xfe, 0xfe, 0xfb, 0xff, 0xff, 0xfa, 0x03, 0xff, 0x02, 0xff, 0x0a, 0x00, 0x01, 0xfd, 0x05, 0x02, 0x01, 0x12, 0x08, 0xff, 0x04, 0x14, 0xff, 0x09, 0x03, 0x5a, 0x03, 0xfb, 0x00, 0xfd, 0xfb, 0xfa, 0xfe, 0xfe, 0xf7, 0xfe, 0xf4, 0x01, 0x06, 0x03, 0xfe, 0xf6, 0xee, 0xfb, 0xfd, 0xf5, 0xf0, 0xee, 0x09, 0x01, 0x02, 0xff, 0xfb, 0xfd, 0xef, 0x09, 0x00, 0x0b, 0x00, 0x0a, 0x0a, 0xfd, 0x12, 0xfd, 0xfe, 0xfc, 0xf8, 0x01, 0x08, 0x07, 0x03, 0x03, 0x01, 0x0b, 0x02, 0xff, 0x01, 0xf5, 0xf8, 0x02, 0xfe, 0x01, 0x0d, 0x00, 0xf0, 0x03, 0x01, 0x11, 0x03, 0x0e, 0x02, 0x01, 0x00, 0xfe, 0xff, 0x00, 0xfe, 0x00, 0x01, 0x00, 0x09, 0xe4, 0x02, 0x00, 0x00, 0x02, 0x01, 0xfc, 0x03, 0x02, 0xe7, 0xe6, 0xfd, 0x01, 0x02, 0x06, 0x07, 0x05, 0xfb, 0x02, 0xfe, 0xfe, 0xfd, 0x04, 0xfe, 0xf6, 0x00, 0x01, 0x00, 0x03, 0xfd, 0xfa, 0x02, 0xf8, 0xed, 0xef, 0xe4, 0xec, 0x00, 0x01, 0xfd, 0x06, 0x00, 0x01, 0xfe, 0x02, 0x03, 0x02, 0x0e, 0xfb, 0x00, 0xfe, 0x03, 0x9a, 0xfa, 0xf4, 0xff, 0xfa, 0xff, 0xf9, 0x05, 0xfc, 0x01, 0xff, 0x01, 0x02, 0xfe, 0x06, 0x00, 0xfd, 0xfe, 0xfb, 0xff, 0x00, 0xfc, 0x03, 0x06, 0xf1, 0x02, 0xfe, 0x02, 0xff, 0x00, 0x01, 0xff, 0x00, 0x02, 0x1b, 0x00, 0x01, 0xff, 0xfc, 0xff, 0xff, 0xf8, 0xfe, 0x02, 0x00, 0x05, 0x01, 0xff, 0xfa, 0x07, 0xff, 0x03, 0x00, 0xff, 0x03, 0xfd, 0x10, 0x05, 0x00, 0x00, 0x0b, 0xff, 0x0f, 0x0a, 0x57, 0xec, 0xf4, 0x01, 0xfe, 0x02, 0x01, 0x01, 0xff, 0xff, 0x00, 0x04, 0xf9, 0xfe, 0xfe, 0x03, 0xfe, 0xfd, 0xfc, 0x01, 0xfd, 0x01, 0x02, 0xfa, 0x01, 0xff, 0x01, 0xff, 0xff, 0x04, 0x01, 0x01, 0xf4, 0x01, 0xff, 0x00, 0xff, 0xff, 0x00, 0x00, 0x05, 0xfe, 0x06, 0x00, 0x07, 0x08, 0xfe, 0x01, 0xfa, 0xfc, 0xff, 0x01, 0xf9, 0x03, 0xf9, 0xfc, 0x02, 0xfb, 0x00, 0xff, 0x09, 0x02, 0xfd, 0x08, 0x04, 0xf9, 0x02, 0x01, 0x00, 0x04, 0xfa, 0xef, 0x01, 0x04, 0x02, 0x03, 0xf1, 0xfa, 0xfc, 0xfd, 0xe9, 0xf7, 0xf3, 0x04, 0x04, 0xf9, 0xf8, 0xfd, 0xf7, 0x04, 0x04, 0x03, 0x04, 0xf3, 0x08, 0xfb, 0xf6, 0xf6, 0xfd, 0xf6, 0xe2, 0xf3, 0x01, 0x02, 0x02, 0xe7, 0xe5, 0x07, 0xf4, 0xf5, 0xf8, 0xf5, 0xf6, 0xfd, 0x02, 0xf9, 0x00, 0xf7, 0xf3, 0x03, 0xfc, 0xfd, 0x03, 0xf3, 0xf9, 0x01, 0xfc, 0xfb, 0x9b, 0xf6, 0x01, 0xf9, 0xfc, 0x01, 0x05, 0xf3, 0xfb, 0x03, 0x00, 0xff, 0xfa, 0x02, 0xfc, 0x01, 0xf3, 0xfd, 0xfd, 0xfd, 0x00, 0xfa, 0xfa, 0xfd, 0x13, 0xfc, 0x00, 0xff, 0x00, 0xfe, 0xff, 0x03, 0xf9, 0xfd, 0xfe, 0x03, 0x0a, 0x06, 0x01, 0xfe, 0x01, 0xf0, 0x00, 0x03, 0x05, 0x01, 0xfd, 0x04, 0xf7, 0xfe, 0x00, 0x00, 0x00, 0x03, 0x08, 0x00, 0xf7, 0x02, 0x00, 0xfc, 0xf6, 0xfe, 0x00, 0xff, 0xf9, 0x0f, 0x02, 0x00, 0xfd, 0x01, 0x00, 0x01, 0x00, 0x02, 0x00, 0x02, 0xf6, 0x02, 0xff, 0x03, 0xfe, 0x08, 0x09, 0x00, 0xfe, 0xfd, 0xfa, 0xf6, 0xfe, 0x00, 0x05, 0x04, 0x04, 0xfa, 0xfe, 0x04, 0xf8, 0xff, 0xfe, 0x03, 0xf9, 0x0a, 0xff, 0xff, 0x01, 0x08, 0xf9, 0xff, 0xfe, 0x06, 0xfc, 0x01, 0xfd, 0xfc, 0x00, 0x02, 0x0b, 0x09, 0x02, 0xff, 0x03, 0xf6, 0x02, 0x0a, 0xfa, 0xfc, 0xfb, 0x00, 0xb3, 0xfc, 0x04, 0x01, 0x03, 0x02, 0xf6, 0xe8, 0x01, 0x03, 0x02, 0x02, 0x02, 0xff, 0x00, 0xf9, 0xeb, 0xfe, 0x08, 0x03, 0x03, 0xfe, 0xfc, 0x03, 0xf4, 0x02, 0xff, 0x03, 0x00, 0xf8, 0x07, 0x04, 0xf9, 0xfb, 0x00, 0xfa, 0xf2, 0xf9, 0x01, 0x01, 0x03, 0xdd, 0xfb, 0x04, 0xff, 0xe1, 0xea, 0xf7, 0xfa, 0x01, 0x01, 0xfd, 0x01, 0xff, 0xff, 0x03, 0x00, 0xfd, 0x01, 0xf9, 0x06, 0x00, 0x00, 0xfa, 0xac, 0xfc, 0xf5, 0xfd, 0xfb, 0xff, 0xfb, 0x09, 0xfe, 0x03, 0x00, 0x02, 0xf9, 0xfd, 0x06, 0xff, 0x05, 0x01, 0xff, 0x00, 0x00, 0xfd, 0xfd, 0xfd, 0x07, 0x00, 0x01, 0xfd, 0x02, 0x02, 0xff, 0xff, 0xfc, 0xff, 0x07, 0xfc, 0x04, 0xff, 0xfe, 0xff, 0x01, 0xfc, 0xfc, 0x01, 0xf7, 0xfc, 0x00, 0x01, 0xfd, 0x19, 0xff, 0x02, 0x05, 0xf9, 0x22, 0x00, 0x01, 0xf5, 0xff, 0xfe, 0x05, 0xfe, 0xff, 0x08, 0xfe, 0x0b, 0xf4, 0x00, 0x01, 0x01, 0x01, 0xf6, 0x01, 0xf5, 0x00, 0xfe, 0x00, 0xf1, 0xfd, 0xff, 0x05, 0xfb, 0xf7, 0x02, 0xfd, 0xfe, 0x04, 0xf7, 0xfa, 0x01, 0x01, 0xf7, 0xff, 0x01, 0xfe, 0xf7, 0x04, 0x02, 0x02, 0xf5, 0xf0, 0x09, 0x00, 0x01, 0x01, 0x01, 0x05, 0xfe, 0x02, 0xff, 0xf5, 0xf2, 0x00, 0x02, 0x00, 0xf3, 0xf6, 0xfd, 0xfc, 0xf3, 0x03, 0xfa, 0x00, 0x02, 0x08, 0x02, 0x04, 0x02, 0x02, 0xff, 0x02, 0xfc, 0x01, 0x00, 0xf9, 0xfd, 0xff, 0xfc, 0x00, 0x01, 0x08, 0xff, 0x01, 0xfe, 0xfe, 0x0e, 0x04, 0x05, 0x03, 0xff, 0x05, 0xff, 0x01, 0xff, 0xff, 0x05, 0xff, 0x07, 0xff, 0x05, 0x0b, 0xf6, 0x01, 0x03, 0x06, 0xfe, 0x00, 0xff, 0xfd, 0xfb, 0xfb, 0xfd, 0x03, 0xf9, 0x00, 0xfb, 0xfb, 0x00, 0x00, 0x02, 0x0e, 0xfc, 0x01, 0xfe, 0x02, 0x01, 0x00, 0x06, 0xff, 0xff, 0x06, 0xfe, 0x00, 0x06, 0xfe, 0xff, 0x00, 0x00, 0x01, 0xff, 0x00, 0x02, 0xfe, 0x04, 0xfc, 0x02, 0x0a, 0xff, 0x07, 0x02, 0xfd, 0x02, 0xfd, 0x01, 0xfe, 0xfe, 0x0b, 0xff, 0xff, 0x00, 0x01, 0x01, 0x01, 0x03, 0x01, 0x01, 0xff, 0xff, 0x04, 0xfc, 0x00, 0x00, 0x01, 0x01, 0x07, 0x00, 0x03, 0x05, 0xf6, 0x06, 0xfc, 0x09, 0xfe, 0x02, 0xff, 0x06, 0x05, 0xfe, 0x07, 0x01, 0xff, 0xff, 0x0e, 0x00, 0xfa, 0x03, 0x10, 0x04, 0xfe, 0x00, 0xfb, 0x00, 0x01, 0xfe, 0x00, 0xff, 0x02, 0x05, 0x00, 0xf8, 0xfc, 0xff, 0x03, 0xf6, 0xf7, 0xfb, 0x07, 0xfb, 0xfe, 0xfb, 0xf8, 0x03, 0x03, 0x02, 0x04, 0xf5, 0x04, 0xf4, 0xfc, 0xfe, 0x00, 0xfa, 0xe6, 0xfb, 0x00, 0x02, 0xff, 0x00, 0xfb, 0x04, 0xfe, 0x01, 0x01, 0xfb, 0x00, 0x04, 0x03, 0xfa, 0xfd, 0xf8, 0xfa, 0x00, 0x03, 0xf9, 0x02, 0x01, 0x01, 0x01, 0x07, 0xff, 0x07, 0xfc, 0x01, 0xfe, 0x01, 0x03, 0xfd, 0xfe, 0x00, 0x08, 0x01, 0xf9, 0xf6, 0x06, 0x00, 0xff, 0xf8, 0xff, 0xf7, 0x01, 0xfc, 0xff, 0x00, 0x01, 0x02, 0x00, 0x01, 0x00, 0xff, 0xfe, 0x00, 0x02, 0xef, 0xff, 0x04, 0xfc, 0xfd, 0xfa, 0x00, 0xff, 0x00, 0xfb, 0x00, 0x08, 0x07, 0x06, 0xfb, 0x10, 0xf4, 0x03, 0x00, 0x01, 0x01, 0x02, 0x01, 0xfe, 0xfc, 0x01, 0x01, 0xf9, 0x02, 0x01, 0xfc, 0xfd, 0xf3, 0x03, 0x04, 0x00, 0x01, 0xfe, 0xee, 0xfc, 0x00, 0xfa, 0xff, 0xfe, 0xfe, 0xf7, 0x03, 0xfa, 0x02, 0xf1, 0x03, 0x00, 0xfe, 0xff, 0xfb, 0xfc, 0xff, 0x02, 0x01, 0xff, 0x01, 0xe4, 0x02, 0xff, 0x02, 0xfc, 0xfe, 0x0a, 0xf5, 0x0a, 0x00, 0x00, 0xed, 0xfd, 0xfe, 0x03, 0x01, 0xee, 0x00, 0x04, 0x0c, 0x00, 0x00, 0xfa, 0xff, 0xf4, 0xfd, 0x01, 0xfc, 0x01, 0x01, 0xe6, 0xf4, 0x01, 0x09, 0xfe, 0xfb, 0x08, 0x01, 0xfd, 0xfc, 0xf8, 0xfd, 0xf9, 0xfd, 0xf9, 0xff, 0xf5, 0xf3, 0x08, 0x06, 0xf9, 0xf7, 0xe5, 0xfb, 0xfc, 0xf6, 0xf3, 0xde, 0x07, 0x0a, 0xfd, 0x01, 0xf8, 0xff, 0xdb, 0x05, 0x02, 0xfa, 0x00, 0x09, 0x04, 0xfc, 0x08, 0xfe, 0xfe, 0xfd, 0xf2, 0x01, 0x05, 0x08, 0x01, 0xfd, 0x0d, 0x06, 0xfe, 0xff, 0x05, 0xe7, 0xf4, 0x07, 0xfa, 0xf6, 0x0a, 0xff, 0xef, 0xfd, 0x01, 0x00, 0x01, 0xea, 0x0a, 0xf2, 0x00, 0xfa, 0x01, 0xfb, 0xff, 0xfd, 0x01, 0x00, 0x00, 0x03, 0xfe, 0xfc, 0x02, 0x03, 0xff, 0xfd, 0x00, 0xff, 0x00, 0xfd, 0x04, 0xf7, 0xff, 0x00, 0xfe, 0x00, 0x02, 0xff, 0xff, 0x03, 0x01, 0x03, 0x00, 0x02, 0xfc, 0x00, 0xff, 0x04, 0xff, 0x03, 0x03, 0xfb, 0xfe, 0x04, 0xfb, 0xfc, 0xff, 0xfe, 0x03, 0x03, 0xff, 0x0c, 0x01, 0x02, 0x03, 0xff, 0x00, 0x0a, 0xfe, 0xff, 0x12, 0x3b, 0xf4, 0xf4, 0x01, 0x01, 0x00, 0x02, 0xf5, 0x00, 0xf5, 0x00, 0xfe, 0xff, 0xf6, 0x01, 0x01, 0x00, 0xf9, 0xf9, 0x01, 0x00, 0xfb, 0xfc, 0xf9, 0x02, 0x00, 0x02, 0xf2, 0x01, 0xfe, 0x00, 0xf8, 0x07, 0x01, 0x06, 0xf4, 0xee, 0x02, 0xff, 0x00, 0x00, 0x05, 0x03, 0xff, 0x04, 0x05, 0xf5, 0xf9, 0x01, 0xfe, 0x01, 0xf7, 0xf0, 0xfc, 0xf8, 0xee, 0xff, 0xfc, 0x00, 0x01, 0x07, 0x02, 0x02, 0xff, 0xfc, 0xf5, 0x01, 0x00, 0xff, 0x03, 0x02, 0xf5, 0x00, 0x02, 0x01, 0xff, 0xf1, 0x01, 0x00, 0x01, 0xec, 0x01, 0xf4, 0x04, 0x00, 0x00, 0xfe, 0xfe, 0xfe, 0x01, 0x01, 0x01, 0x01, 0xff, 0x02, 0xf9, 0xff, 0xf7, 0x01, 0xfa, 0xfd, 0xf8, 0x00, 0x00, 0x03, 0xea, 0xf4, 0x06, 0xf1, 0x00, 0xfe, 0xfa, 0xfc, 0x00, 0x01, 0x00, 0x03, 0xfa, 0xfc, 0x03, 0x01, 0x05, 0x01, 0xf2, 0xfe, 0x00, 0xff, 0xff, 0xcb, 0xf9, 0xfa, 0x00, 0xfc, 0xf9, 0xf6, 0xfe, 0xfb, 0xf2, 0xff, 0xfd, 0x03, 0x04, 0x06, 0xff, 0xed, 0xf8, 0xf4, 0xfc, 0xfd, 0xf6, 0xfd, 0x0e, 0xfa, 0x04, 0xfc, 0x02, 0xfd, 0xfc, 0x08, 0x01, 0x11, 0x04, 0x10, 0x0d, 0xfc, 0x08, 0xfb, 0xff, 0xf5, 0xe9, 0x05, 0x09, 0x02, 0x01, 0x02, 0xf9, 0x04, 0x01, 0xfe, 0x01, 0xf9, 0xf2, 0xfc, 0xff, 0x14, 0x14, 0xff, 0xfb, 0x08, 0x01, 0x16, 0x04, 0x32, 0xff, 0x02, 0xfd, 0x01, 0x01, 0x01, 0x03, 0x00, 0x03, 0xff, 0x01, 0x00, 0x00, 0x1c, 0xfb, 0xff, 0x02, 0xfe, 0x00, 0xff, 0xf9, 0x00, 0x08, 0x03, 0x03, 0xff, 0xff, 0xff, 0xfe, 0xfc, 0x03, 0xf7, 0x00, 0xfd, 0x04, 0xff, 0xf9, 0xfe, 0xff, 0x01, 0x00, 0x0a, 0xff, 0xf9, 0xfe, 0x02, 0x05, 0xfa, 0x1a, 0xff, 0xf9, 0x01, 0x02, 0xff, 0x01, 0x12, 0x0d, 0x00, 0xfc, 0x18, 0xfe, 0x07, 0xfb, 0x1c, 0x0d, 0x02, 0x00, 0x00, 0x02, 0xf3, 0xef, 0x01, 0x04, 0x01, 0x05, 0xec, 0xfa, 0x00, 0xf8, 0xe5, 0xf4, 0xf4, 0x02, 0x05, 0xeb, 0xe9, 0x00, 0x00, 0x03, 0x02, 0x02, 0x03, 0xf3, 0x03, 0xf8, 0xfa, 0xf7, 0x02, 0xf9, 0xec, 0xf5, 0x01, 0x01, 0xfa, 0xe3, 0xf3, 0x04, 0xfb, 0xf0, 0xf0, 0xf0, 0xed, 0x02, 0x01, 0xfb, 0x02, 0xf1, 0xf5, 0x04, 0xfe, 0x03, 0x02, 0xed, 0x08, 0x00, 0xfe, 0x00, 0xbc, 0x01, 0x00, 0xff, 0xfe, 0xfc, 0xfc, 0xfc, 0xfe, 0xf4, 0x01, 0x02, 0xfc, 0x03, 0x0b, 0xfb, 0xea, 0xf9, 0xfa, 0x00, 0x00, 0xee, 0xfb, 0x09, 0x02, 0x00, 0x01, 0xfd, 0xff, 0xfd, 0x01, 0x02, 0x01, 0x02, 0x0a, 0x0a, 0xfa, 0x00, 0xfe, 0x00, 0xf9, 0xf7, 0x00, 0x04, 0x04, 0x09, 0xfd, 0x07, 0xfe, 0xfe, 0x00, 0x01, 0xf9, 0xef, 0x03, 0xfd, 0x09, 0x0b, 0xff, 0x02, 0xff, 0x00, 0x04, 0x00, 0xfc, 0x0a, 0xca, 0xc5, 0xff, 0xff, 0x04, 0x00, 0x00, 0x00, 0x00, 0x20, 0x00, 0x00, 0xff, 0x01, 0xef, 0x00, 0x02, 0x00, 0x01, 0x01, 0x00, 0x00, 0xc0, 0x00, 0x00, 0x00, 0x00, 0x00, 0x00, 0x02, 0x00, 0x00, 0x00, 0x00, 0x00, 0x00, 0x00, 0xfd, 0xf9, 0x00, 0xfc, 0xff, 0x00, 0x07, 0x00, 0x00, 0xb2, 0xff, 0x00, 0x00, 0xb6, 0x00, 0xfc, 0xff, 0x00, 0x03, 0x01, 0x00, 0xff, 0x00, 0x00, 0x01, 0x00, 0x00, 0x00, 0xfc, 0x00, 0x00, 0xff, 0xfa, 0x00, 0x01, 0x01, 0x00, 0xfc, 0x00, 0x00, 0x00, 0xf2, 0x00, 0x00, 0xff, 0x01, 0x00, 0xff, 0x00, 0x00, 0x00, 0x02, 0x00, 0x00, 0x00, 0x00, 0x04, 0x00, 0x00, 0x01, 0x00, 0x01, 0x00, 0xff, 0x00, 0xfd, 0x00, 0xfe, 0x00, 0xff, 0xfc, 0x00, 0x00, 0x00, 0x00, 0x03, 0x00, 0x00, 0x00, 0x00, 0xa6, 0x00, 0xe8, 0x02, 0x04, 0x00, 0xd7, 0x00, 0xfd, 0xff, 0x01, 0xea, 0x01, 0x00, 0xfb, 0x00, 0x01, 0x01, 0x00, 0x01, 0xff, 0x00, 0x01, 0xfc, 0x03, 0x0d, 0x00, 0x00, 0x00, 0x01, 0xff, 0x01, 0x01, 0x1b, 0x01, 0x00, 0x01, 0x00, 0x01, 0x00, 0x00, 0x00, 0x01, 0x00, 0x02, 0x00, 0x00, 0x00, 0x04, 0x38, 0x02, 0xf6, 0x02, 0x00, 0x00, 0x00, 0x00, 0x1b, 0x00, 0x01, 0x00, 0x1f, 0x00, 0x00, 0x00, 0x00, 0x02, 0x01, 0x00, 0x01, 0x00, 0x00, 0x01, 0x01, 0x00, 0x01, 0xfa, 0x01, 0x00, 0xff, 0x3f, 0x03, 0x00, 0x00, 0x03, 0x3a, 0x00, 0x01, 0x00, 0x12, 0x00, 0x00, 0x02, 0x04, 0x00, 0x00, 0x01, 0x00, 0x00, 0x00, 0x01, 0x02, 0x00, 0x01, 0xf4, 0x01, 0x01, 0x00, 0x00, 0x00, 0x00, 0x00, 0x01, 0x00, 0x00, 0x00, 0x00, 0x00, 0x01, 0xff, 0x00, 0x00, 0x00, 0xf7, 0x01, 0x00, 0x01, 0xff, 0x14, 0x01, 0x0e, 0xf6, 0xf6, 0x00, 0x15, 0x01, 0xfc, 0x01, 0x01, 0x07, 0x00, 0x00, 0x07, 0x01, 0xff, 0xff, 0x01, 0x03, 0x04, 0x00, 0x03, 0xe9, 0x02, 0x01, 0x02, 0x03, 0x00, 0x02, 0xf9, 0x00, 0xff, 0x01, 0xff, 0x01, 0x00, 0x00, 0x01, 0xfe, 0x01, 0x00, 0x00, 0x00, 0x04, 0x00, 0x00, 0xff, 0xff, 0xf4, 0x03, 0xce, 0x01, 0x00, 0xc3, 0x01, 0x00, 0xff, 0xfc, 0x01, 0xfe, 0x06, 0x00, 0x01, 0xff, 0xff, 0x04, 0x02, 0x00, 0x00, 0xff, 0x00, 0xf9, 0x01, 0xff, 0x01, 0xf2, 0x00, 0x00, 0xff, 0xee, 0x01, 0x02, 0x00, 0x04, 0xf0, 0x00, 0x00, 0x01, 0x04, 0xff, 0x00, 0x00, 0x03, 0x00, 0xfe, 0x00, 0xff, 0x01, 0x02, 0xff, 0x01, 0x01, 0xff, 0xf6, 0xff, 0xff, 0xff, 0x00, 0x01, 0x00, 0x01, 0x00, 0x04, 0x00, 0xfd, 0x01, 0xff, 0x02, 0x00, 0xff, 0xff, 0x01, 0xf0, 0xff, 0x00, 0xff, 0x00, 0xfb, 0x00, 0x07, 0xfa, 0xeb, 0x00, 0xff, 0x00, 0x01, 0xfe, 0xff, 0xff, 0x02, 0x00, 0xe7, 0x01, 0xff, 0x06, 0x00, 0xfe, 0x03, 0x00, 0x02, 0xfb, 0xff, 0xff, 0x00, 0x04, 0x01, 0x00, 0x01, 0x00, 0x00, 0xfd, 0xfc, 0x01, 0x00, 0x01, 0x00, 0x00, 0x00, 0x01, 0xfa, 0x00, 0xfd, 0x00, 0x02, 0xff, 0xff, 0xfe, 0xff, 0xde, 0xff, 0x07, 0xfa, 0x01, 0x00, 0x02, 0xff, 0x01, 0xff, 0x01, 0xff, 0x01, 0x00, 0x00, 0x00, 0x01, 0x01, 0x01, 0x00, 0x00, 0xff, 0xfe, 0xff, 0xfc, 0xf8, 0xff, 0x00, 0xff, 0x00, 0xff, 0x00, 0x00, 0xff, 0xff, 0x01, 0xf9, 0x00, 0x01, 0x00, 0xff, 0x00, 0x00, 0xfe, 0x02, 0x00, 0xff, 0x00, 0x00, 0xff, 0xff, 0x01, 0x01, 0x06, 0xff, 0x00, 0x05, 0x01, 0xff, 0xff, 0x01, 0xff, 0xfe, 0x00, 0x04, 0x01, 0x00, 0x0a, 0x08, 0x00, 0x00, 0x00, 0x0e, 0x01, 0x01, 0x00, 0x00, 0x00, 0xff, 0x04, 0x01, 0xff, 0xff, 0x03, 0x00, 0x00, 0xff, 0xfa, 0xff, 0x00, 0x01, 0xf0, 0x00, 0x03, 0xfc, 0x01, 0xf1, 0x00, 0x00, 0xff, 0x02, 0x00, 0x00, 0x00, 0x07, 0x00, 0x00, 0x01, 0x01, 0xff, 0x00, 0x00, 0x00, 0x00, 0x00, 0x00, 0xff, 0x00, 0x00, 0x00, 0x00, 0x00, 0x00, 0xff, 0xff, 0x00, 0xfe, 0x00, 0xe9, 0x01, 0x03, 0xfb, 0x00, 0x00, 0x09, 0x00, 0x00, 0xff, 0x00, 0x00, 0x81, 0x00, 0x00, 0xfe, 0xff, 0x00, 0x00, 0x00, 0x00, 0x01, 0x00, 0xff, 0x00, 0x03, 0x01, 0x00, 0xfe, 0x01, 0x00, 0x00, 0x00, 0x01, 0x00, 0x00, 0x00, 0x00, 0xff, 0x00, 0xff, 0x01, 0x00, 0x00, 0x01, 0x00, 0x00, 0x01, 0x00, 0x00, 0x00, 0x00, 0x03, 0x00, 0x00, 0x00, 0x01, 0x00, 0x00, 0x00, 0x00, 0x00, 0xff, 0x00, 0x02, 0x00, 0x00, 0xfd, 0xff, 0x00, 0x02, 0x00, 0x04, 0x00, 0x00, 0x00, 0xff, 0xfd, 0x00, 0x00, 0xa1, 0xfd, 0x00, 0xfe, 0x00, 0x81, 0x01, 0xff, 0x02, 0x00, 0x00, 0x13, 0x00, 0xff, 0x01, 0x00, 0x08, 0x02, 0x00, 0x00, 0xfc, 0x00, 0x02, 0x00, 0x00, 0x00, 0xff, 0x01, 0x01, 0x00, 0xdb, 0x00, 0x00, 0x01, 0xf1, 0xf8, 0xff, 0x00, 0x00, 0x00, 0x00, 0xff, 0x00, 0x00, 0x00, 0x01, 0x02, 0x00, 0x1c, 0xfe, 0xfd, 0x06, 0xf3, 0x00, 0xd8, 0x00, 0xef, 0x00, 0xe3, 0x00, 0xcb, 0x00, 0x01, 0xff, 0xff, 0xef, 0xf3, 0x00, 0x00, 0x01, 0x00, 0xff, 0xff, 0xfb, 0x00, 0x00, 0x01, 0x02, 0x01, 0x00, 0x00, 0x00, 0x01, 0xff, 0x00, 0x00, 0x01, 0x00, 0x00, 0x01, 0x01, 0x00, 0x0c, 0x00, 0x00, 0x00, 0x00, 0x01, 0x00, 0xf2, 0x01, 0xfd, 0x00, 0x00, 0xf9, 0x00, 0x00, 0x00, 0xf0, 0x00, 0xfb, 0x00, 0x04, 0x00, 0x00, 0x02, 0xfd, 0x00, 0x00, 0x00, 0x02, 0x01, 0x00, 0x00, 0xff, 0xd3, 0x00, 0x04, 0xda, 0xd2, 0x00, 0xe9, 0x00, 0xcf, 0xff, 0xfd, 0x05, 0x00, 0xff, 0x23, 0x01, 0x01, 0xfd, 0x00, 0x01, 0xff, 0x01, 0x00, 0xf8, 0x05, 0x02, 0xff, 0x02, 0x00, 0x01, 0x01, 0xff, 0xfe, 0x07, 0x02, 0x00, 0x00, 0x00, 0x00, 0xfe, 0x04, 0x00, 0x01, 0x00, 0x01, 0x00, 0xff, 0xff, 0x01, 0x0c, 0x05, 0x14, 0x02, 0xff, 0x11, 0x00, 0xff, 0x02, 0xfe, 0x00, 0xff, 0x02, 0x01, 0x12, 0xfe, 0x00, 0x00, 0x01, 0x00, 0x01, 0x00, 0x00, 0x02, 0x02, 0xff, 0x01, 0xfc, 0x02, 0x00, 0xfe, 0x11, 0x04, 0x00, 0xff, 0x09, 0x15, 0xff, 0x02, 0x00, 0x01, 0xfe, 0xff, 0x03, 0x03, 0x01, 0xfe, 0x01, 0xfe, 0xff, 0x00, 0x00, 0x02, 0x01, 0x03, 0x14, 0x01, 0x00, 0x00, 0x00, 0x01, 0xff, 0x01, 0x01, 0xff, 0xff, 0xfc, 0x00, 0x00, 0x09, 0xfa, 0xfd, 0x03, 0x01, 0x03, 0x00, 0x00, 0xff, 0x00, 0x00, 0xff, 0x00, 0x14, 0xfe, 0xff, 0x07, 0xff, 0x0f, 0xff, 0x02, 0x03, 0x01, 0x00, 0x03, 0x00, 0xff, 0x04, 0x00, 0x0c, 0x03, 0x00, 0x04, 0xff, 0x00, 0xf8, 0x00, 0xff, 0x00, 0x01, 0xfe, 0x00, 0xff, 0xd4, 0xff, 0x00, 0xff, 0x00, 0x00, 0x00, 0x00, 0x00, 0xfa, 0x00, 0xfd, 0x00, 0x01, 0x00, 0x00, 0xfd, 0x00, 0x02, 0x02, 0x03, 0x04, 0x00, 0x00, 0xd4, 0xff, 0x01, 0x01, 0xd0, 0x00, 0x01, 0x01, 0x00, 0xff, 0x01, 0x00, 0x00, 0x00, 0x00, 0xff, 0xff, 0x00, 0xfc, 0xfd, 0xfe, 0x00, 0xfe, 0x00, 0x00, 0x00, 0x00, 0xff, 0x00, 0x00, 0xfa, 0x00, 0xfa, 0x00, 0x01, 0xff, 0xff, 0x00, 0x03, 0x01, 0x00, 0x00, 0x00, 0x01, 0x00, 0x00, 0x01, 0x04, 0xff, 0x00, 0x03, 0x01, 0xff, 0x00, 0x00, 0x00, 0x01, 0x00, 0x04, 0x00, 0x00, 0x03, 0x05, 0xff, 0xff, 0x00, 0x04, 0xff, 0x00, 0xff, 0xff, 0xc9, 0xff, 0x01, 0x06, 0x02, 0x00, 0xd7, 0x01, 0x01, 0xff, 0xfe, 0x00, 0x00, 0x00, 0xf7, 0x00, 0x00, 0xfc, 0x00, 0xf4, 0xfc, 0x00, 0x00, 0xf6, 0x02, 0xff, 0x01, 0x02, 0x02, 0x01, 0x04, 0x02, 0x01, 0xfc, 0x00, 0x00, 0x03, 0x01, 0x00, 0x02, 0x00, 0x01, 0x00, 0x01, 0x00, 0x02, 0x01, 0x00, 0x01, 0x06, 0x00, 0x0f, 0xfd, 0x05, 0x04, 0x01, 0x01, 0xfd, 0x01, 0x02, 0x01, 0x12, 0xff, 0xf6, 0x01, 0x03, 0x00, 0x04, 0x02, 0x02, 0x01, 0x01, 0x01, 0xfe, 0x04, 0xff, 0xfe, 0x02, 0x01, 0x01, 0xf8, 0x01, 0x00, 0x00, 0x02, 0xfc, 0x00, 0x00, 0x01, 0xff, 0x01, 0x00, 0x02, 0x00, 0xff, 0x03, 0x02, 0x00, 0x01, 0x00, 0x00, 0x00, 0x00, 0xff, 0x24, 0x01, 0x01, 0x0b, 0x00, 0x00, 0x00, 0x01, 0xff, 0x03, 0x01, 0x04, 0x01, 0x00, 0x0b, 0x0a, 0x00, 0x01, 0x01, 0x25, 0x02, 0x02, 0x02, 0x00, 0xf8, 0x00, 0xfc, 0xfb, 0xee, 0x00, 0xf9, 0x00, 0xf9, 0xff, 0xfe, 0xff, 0x00, 0x01, 0xf0, 0x00, 0x01, 0xfc, 0x01, 0x03, 0xff, 0x02, 0x02, 0x0a, 0x00, 0x02, 0xf2, 0xfd, 0x00, 0x00, 0x00, 0xff, 0x00, 0x00, 0x01, 0x00, 0xff, 0x00, 0x00, 0x00, 0x00, 0x00, 0x00, 0x00, 0xff, 0xf4, 0x00, 0x00, 0x01, 0x05, 0x01, 0xfa, 0x06, 0x02, 0x08, 0x00, 0xff, 0x02, 0x00, 0x00, 0x00, 0xfb, 0x00, 0x01, 0x01, 0x00, 0x01, 0x00, 0x00, 0x00, 0x00, 0xff, 0x01, 0x00, 0xff, 0x00, 0x09, 0xff, 0x00, 0xff, 0x08, 0x01, 0x00, 0x00, 0x00, 0x03, 0x01, 0x00, 0x00, 0x0a, 0x00, 0x00, 0xfe, 0x01, 0x00, 0x03, 0x02, 0x00, 0xf2, 0x00, 0xff, 0xff, 0x01, 0x00, 0xdb, 0x00, 0xf9, 0x03, 0xf6, 0x00, 0x00, 0x00, 0x01, 0x05, 0x00, 0x00, 0xf6, 0x00, 0xf3, 0xfc, 0x00, 0x00, 0x00, 0xf7, 0xff, 0xfa, 0xff, 0x01, 0x02, 0x00, 0x08, 0x04, 0x10, 0x00, 0xfe, 0x00, 0xff, 0x00, 0x01, 0x06, 0x00, 0xff, 0x17, 0x00, 0x01, 0xfe, 0xfb, 0xff, 0x03, 0x00, 0x00, 0xe2, 0xfb, 0x01, 0x00, 0xff, 0x00, 0x00, 0x00, 0x01, 0x00, 0xfe, 0x01, 0x00, 0xff, 0x00, 0x00, 0xff, 0xff, 0x01, 0x00, 0x00, 0x00, 0x00, 0x00, 0x00, 0x01, 0xe8, 0xf9, 0x34, 0xfb, 0xc8, 0x0f, 0xff, 0x00, 0x01, 0x00, 0x00, 0x01, 0x01, 0xff, 0x00, 0x00, 0x00, 0x00, 0x00, 0xff, 0x01, 0xff, 0xff, 0x00, 0xff, 0xfe, 0x00, 0xfa, 0x00, 0xfb, 0x00, 0xee, 0xf7, 0x00, 0x00, 0xf6, 0xf3, 0x00, 0x00, 0xfb, 0x05, 0x00, 0x00, 0xfd, 0xf8, 0x00, 0xd8, 0xff, 0x00, 0x00, 0x00, 0x01, 0xff, 0x00, 0xff, 0x08, 0x00, 0x00, 0xcf, 0x00, 0xff, 0x00, 0x00, 0x00, 0xf6, 0xff, 0xd2, 0xff, 0x00, 0xfb, 0xf7, 0x00, 0x00, 0x00, 0x0a, 0xfd, 0xff, 0xff, 0x00, 0x03, 0x00, 0x01, 0x03, 0x00, 0x00, 0x01, 0x00, 0x00, 0xff, 0xff, 0x04, 0x00, 0x00, 0x07, 0xfd, 0xfe, 0x02, 0x00, 0xfd, 0xff, 0xfb, 0xf6, 0xfa, 0x02, 0x03, 0x00, 0xfe, 0x00, 0x00, 0xfb, 0x00, 0x01, 0xd9, 0xfc, 0x00, 0x01, 0x00, 0x00, 0x01, 0x00, 0x00, 0x00, 0x00, 0x00, 0x00, 0xff, 0x00, 0x01, 0x03, 0x00, 0xf2, 0xf8, 0x01, 0xce, 0x00, 0x00, 0xc6, 0x00, 0x01, 0xfe, 0xc6, 0x00, 0xa3, 0x01, 0x00, 0xfe, 0xff, 0x00, 0x00, 0x01, 0x00, 0xf8, 0xfd, 0x00, 0x00, 0xfa, 0x00, 0x00, 0x00, 0x02, 0x00, 0x00, 0x00, 0x01, 0x03, 0x01, 0x00, 0x00, 0x07, 0x00, 0x00, 0x00, 0x00, 0xff, 0x04, 0x01, 0x00, 0x00, 0x01, 0xff, 0xfd, 0x00, 0xfe, 0x03, 0x00, 0x00, 0x05, 0x00, 0x00, 0x00, 0x00, 0xff, 0x02, 0x00, 0x04, 0x00, 0x00, 0xf6, 0x03, 0x00, 0x00, 0x00, 0x00, 0x00, 0x00, 0x00, 0x01, 0xbf, 0x01, 0x02, 0xbe, 0xeb, 0x00, 0xd5, 0x01, 0xaa, 0x00, 0x02, 0x04, 0x01, 0xff, 0xf7, 0x00, 0xff, 0xfe, 0x00, 0x00, 0xff, 0x00, 0x00, 0xe6, 0x00, 0xfa, 0x00, 0xff, 0x00, 0x00, 0x00, 0x00, 0x00, 0xf2, 0x00, 0x00, 0x00, 0xf4, 0xf9, 0xff, 0x00, 0x00, 0x00, 0x00, 0x00, 0x00, 0x00, 0x00, 0x00, 0xc6, 0x00, 0xd7, 0xfc, 0x0c, 0xfb, 0xf5, 0x00, 0xed, 0x00, 0xf3, 0xff, 0xf2, 0x00, 0xe7, 0x00, 0x00, 0x00, 0x00, 0xf3, 0xf3, 0x00, 0x00, 0xfe, 0x00, 0x00, 0x00, 0xfd, 0x01, 0x00, 0xff, 0xc1, 0x01, 0x00, 0x00, 0x00, 0xbb, 0x00, 0x00, 0x00, 0x01, 0x00, 0x00, 0xfe, 0x01, 0x00, 0x08, 0x00, 0x00, 0x00, 0x00, 0x00, 0x00, 0xf8, 0x00, 0x00, 0x00, 0x00, 0x12, 0x00, 0x00, 0x00, 0xf4, 0x00, 0xf9, 0x00, 0x05, 0x00, 0x00, 0xff, 0xff, 0x00, 0x00, 0x00, 0xe9, 0x00, 0x00, 0x00, 0x00, 0xe4, 0x00, 0xff, 0xf9, 0x04, 0x00, 0xf4, 0x00, 0xf6, 0x00, 0x00, 0x00, 0x00, 0x00, 0xda, 0x00, 0x01, 0x01, 0x00, 0x00, 0xfe, 0x00, 0x00, 0xed, 0xf9, 0x05, 0x00, 0x05, 0x00, 0x00, 0x01, 0x01, 0x00, 0x06, 0x01, 0xff, 0x00, 0x01, 0x01, 0x00, 0xff, 0xff, 0x01, 0x00, 0x00, 0x01, 0x00, 0xff, 0x01, 0xcf, 0xfa, 0x15, 0xf4, 0xff, 0x0b, 0x02, 0x00, 0x0c, 0xff, 0x01, 0x00, 0x01, 0x00, 0xac, 0xff, 0x01, 0xfd, 0xfd, 0x01, 0x01, 0x00, 0x00, 0x00, 0x01, 0x00, 0x00, 0xfa, 0x00, 0x01, 0xff, 0xd1, 0xf9, 0x00, 0x00, 0xf8, 0xd5, 0x00, 0x00, 0x01, 0x08, 0x00, 0x00, 0x02, 0xfa, 0x00, 0xfb, 0x00, 0x00, 0x00, 0x00, 0x00, 0x00, 0x02, 0x02, 0x03, 0x01, 0x00, 0xff, 0x01, 0x00, 0x00, 0x02, 0x00, 0xf7, 0x01, 0xf8, 0x01, 0x00, 0xff, 0xfb, 0x00, 0x00, 0x00, 0xfb, 0x00, 0x00, 0x00, 0xff, 0x0c, 0x00, 0xff, 0xcb, 0xea, 0x00, 0x05, 0x00, 0xbe, 0x01, 0xff, 0x08, 0xff, 0x01, 0x1a, 0x01, 0x00, 0x03, 0x00, 0x01, 0x01, 0x01, 0xfc, 0x01, 0x00, 0xff, 0xff, 0x00, 0x00, 0x00, 0xff, 0x00, 0xff, 0xff, 0x00, 0x00, 0x00, 0xf0, 0xf7, 0xff, 0x00, 0x00, 0xfe, 0x00, 0xfd, 0xff, 0x00, 0x00, 0x01, 0x00, 0x00, 0x14, 0x04, 0x15, 0xfd, 0xf3, 0x00, 0x01, 0x00, 0xf3, 0x00, 0x02, 0x00, 0x00, 0x00, 0x00, 0x00, 0x01, 0xf2, 0xee, 0x00, 0x00, 0x01, 0x00, 0x01, 0xff, 0x04, 0xfe, 0x00, 0xff, 0x00, 0x00, 0x00, 0xff, 0x00, 0x00, 0x00, 0xfe, 0x00, 0x00, 0xff, 0x00, 0x00, 0x00, 0x00, 0x09, 0x00, 0xff, 0x00, 0x00, 0x00, 0x00, 0xf2, 0x00, 0x00, 0x00, 0x00, 0x15, 0x00, 0x00, 0xff, 0xf0, 0x00, 0xff, 0x00, 0x13, 0x00, 0x00, 0x02, 0xff, 0xfe, 0xff, 0xff, 0xf5, 0x00, 0x00, 0x00, 0x00, 0x03, 0xff, 0x00, 0xff, 0x03, 0xff, 0x00, 0xff, 0x04, 0x00, 0x00, 0x00, 0x00, 0xff, 0xff, 0x00, 0x00, 0xfe, 0xff, 0x02, 0xff, 0x00, 0x00, 0x01, 0x00, 0xff, 0xf9, 0xfe, 0x00, 0x00, 0x00, 0x00, 0x00, 0xe1, 0x00, 0x00, 0x00, 0x00, 0x00, 0x00, 0x00, 0x00, 0x00, 0x00, 0x00, 0xf8, 0x00, 0x00, 0x01, 0xcd, 0x00, 0xe6, 0xff, 0xde, 0x00, 0x00, 0xff, 0xe5, 0x00, 0x00, 0xff, 0xec, 0x00, 0xd9, 0x00, 0x00, 0xfd, 0xfe, 0x00, 0x00, 0x00, 0x00, 0x00, 0xff, 0x00, 0x00, 0x01, 0x00, 0x00, 0x00, 0xbe, 0x01, 0x00, 0x00, 0x00, 0xbd, 0x00, 0x00, 0x00, 0xfe, 0x00, 0x00, 0x00, 0x00, 0x00, 0xdf, 0x00, 0x00, 0xf8, 0x00, 0x00, 0x00, 0x00, 0xff, 0xfa, 0x00, 0xfb, 0xdd, 0xfa, 0x00, 0x00, 0x00, 0x00, 0x00, 0x00, 0xe4, 0xfb, 0x00, 0xf5, 0x00, 0x00, 0x00, 0x00, 0xf0, 0x00, 0xfc, 0x00, 0x00, 0xe4, 0x00, 0x00, 0xe9, 0x0a, 0x00, 0xee, 0x00, 0xdf, 0x00, 0x00, 0xff, 0x00, 0x00, 0xf0, 0x00, 0x01, 0xff, 0xfc, 0x01, 0xff, 0x00, 0x00, 0xff, 0x00, 0xf6, 0x00, 0x03, 0x00, 0x00, 0x00, 0x00, 0xff, 0xe7, 0x02, 0x00, 0x00, 0x01, 0x00, 0xff, 0x01, 0x00, 0x01, 0x00, 0x01, 0x00, 0x00, 0xff, 0x01, 0xff, 0x00, 0x19, 0x03, 0xa0, 0xff, 0x01, 0x00, 0xe2, 0x00, 0x01, 0xfe, 0xe6, 0x00, 0xff, 0xff, 0x00, 0x00, 0x00, 0x01, 0x00, 0x00, 0x00, 0x00, 0x01, 0xff, 0x00, 0x03, 0x01, 0x00, 0xff, 0xfe, 0x00, 0x00, 0x00, 0x00, 0xfe, 0x00, 0x01, 0x00, 0x00, 0xff, 0x00, 0x01, 0x00, 0x00, 0xb2, 0x00, 0xff, 0x00, 0x00, 0x00, 0x00, 0x01, 0x02, 0x02, 0x00, 0x00, 0xb0, 0x00, 0xff, 0x00, 0x01, 0x00, 0x01, 0x00, 0xa0, 0x00, 0x00, 0xfe, 0x02, 0xff, 0x01, 0x00, 0x01, 0x00, 0x00, 0x00, 0xff, 0xd5, 0x00, 0xfe, 0x03, 0x04, 0x00, 0xea, 0x00, 0x02, 0x00, 0xff, 0xfc, 0x00, 0x00, 0x11, 0x00, 0x00, 0xff, 0x01, 0xfd, 0x03, 0x00, 0x01, 0x03, 0xff, 0xfc, 0xf5, 0xfc, 0x00, 0x01, 0xfc, 0x00, 0xff, 0xff, 0xfd, 0x00, 0x00, 0x00, 0x01, 0xfe, 0x00, 0x00, 0x00, 0x00, 0xfe, 0xf7, 0x01, 0x01, 0x00, 0xfc, 0x01, 0xde, 0xfe, 0x02, 0xf4, 0x00, 0xfe, 0x06, 0xfe, 0x00, 0x00, 0xfe, 0xff, 0x01, 0x01, 0x00, 0x00, 0x02, 0x00, 0x00, 0x00, 0x00, 0xfd, 0xff, 0x00, 0x00, 0xfb, 0x00, 0x01, 0x00, 0xf4, 0x01, 0x00, 0x00, 0x00, 0xf8, 0xff, 0x00, 0x00, 0x03, 0xff, 0x01, 0xfe, 0x01, 0x00, 0x05, 0x00, 0xff, 0xf5, 0x00, 0x00, 0xff, 0x00, 0xfc, 0xdc, 0xff, 0xfb, 0x00, 0xf9, 0xfe, 0x01, 0xff, 0x00, 0x03, 0x00, 0x07, 0xf8, 0x00, 0xf6, 0x0c, 0x00, 0xff, 0x01, 0xd2, 0x00, 0xfa, 0x00, 0xff, 0x02, 0x00, 0xfe, 0x01, 0x02, 0x00, 0x02, 0xfe, 0xff, 0xff, 0x00, 0x02, 0x00, 0x00, 0xf8, 0x00, 0x00, 0xfe, 0xfc, 0xf6, 0x00, 0x01, 0x00, 0x07, 0x03, 0x01, 0xf4, 0xfb, 0x00, 0xff, 0x02, 0x00, 0x00, 0x03, 0x01, 0xff, 0xff, 0x00, 0x00, 0x00, 0x01, 0xfe, 0x00, 0x00, 0x00, 0xf5, 0xff, 0x00, 0x02, 0x06, 0xff, 0x13, 0x09, 0xfc, 0x14, 0x00, 0xfe, 0xfe, 0x00, 0x00, 0x00, 0x02, 0x01, 0x00, 0x01, 0x00, 0x01, 0x00, 0x00, 0x00, 0x00, 0xff, 0x03, 0xff, 0x00, 0x00, 0x08, 0x00, 0xff, 0x00, 0xff, 0x00, 0x00, 0x00, 0x00, 0x02, 0xff, 0x01, 0xff, 0xfe, 0x00, 0x00, 0xf8, 0x02, 0x01, 0x00, 0x00, 0x00, 0xf3, 0x00, 0x00, 0xff, 0x00, 0xfd, 0xfc, 0x01, 0xf8, 0xfd, 0xf8, 0xfe, 0x01, 0x00, 0x01, 0x04, 0xff, 0xff, 0xf7, 0x00, 0xfd, 0x00, 0x00, 0xfd, 0x00, 0xf9, 0xff, 0xfa, 0x00, 0x00, 0x00, 0x01, 0xfe, 0x00, 0x0d, 0x00, 0x01, 0xff, 0xff, 0x01, 0x03, 0xff, 0x00, 0x00, 0xff, 0x00, 0x01, 0xfe, 0xfb, 0xf9, 0xfe, 0xff, 0x02, 0xe7, 0xec, 0x00, 0xfd, 0x04, 0x00, 0x00, 0xfe, 0x00, 0xff, 0xfe, 0x00, 0x00, 0xff, 0x00, 0x02, 0x00, 0x00, 0x00, 0x00, 0x00, 0x00, 0xff, 0x00, 0x00, 0x00, 0x06, 0xec, 0xef, 0xfe, 0xff, 0xe5, 0x00, 0x00, 0x02, 0x00, 0x01, 0xff, 0x02, 0x00, 0x11, 0x00, 0x01, 0x00, 0x00, 0x01, 0x00, 0x00, 0xff, 0x01, 0xff, 0xfe, 0x00, 0xe5, 0x00, 0x00, 0x00, 0x06, 0xec, 0x00, 0xff, 0xeb, 0x0d, 0x00, 0xff, 0x00, 0x01, 0xff, 0xff, 0x01, 0xea, 0x00, 0xfa, 0x00, 0xff, 0xff, 0x00, 0x01, 0x00, 0x01, 0x00, 0x0d, 0x00, 0xff, 0xfc, 0xff, 0x00, 0xff, 0x00, 0x00, 0xf5, 0xff, 0xf9, 0xff, 0x00, 0x0a, 0xfc, 0xff, 0xfe, 0x00, 0xfe, 0xfe, 0xfe, 0xff, 0x00, 0x00, 0xff, 0x01, 0x06, 0x00, 0xff, 0x00, 0x00, 0x12, 0x01, 0x00, 0x01, 0x00, 0x01, 0x00, 0x00, 0xff, 0x02, 0xff, 0x04, 0x02, 0xff, 0xe9, 0xfc, 0xe8, 0xff, 0xf7, 0xff, 0x00, 0x00, 0x01, 0x00, 0x00, 0x02, 0xff, 0x00, 0x00, 0x00, 0x00, 0x00, 0x00, 0x00, 0x00, 0x00, 0xff, 0xf7, 0x00, 0x00, 0x00, 0x10, 0xe9, 0x05, 0xfa, 0x00, 0x03, 0x00, 0xff, 0x01, 0x00, 0x01, 0x00, 0x01, 0x00, 0x02, 0x00, 0x00, 0x00, 0xff, 0x00, 0x00, 0x00, 0x00, 0x00, 0xff, 0x00, 0x00, 0xff, 0x00, 0x00, 0x00, 0x0a, 0xea, 0x00, 0x00, 0xe7, 0x13, 0x00, 0x00, 0x00, 0x01, 0x00, 0x00, 0x00, 0xea, 0x00, 0x01, 0x00, 0x00, 0xf8, 0x00, 0x00, 0xfe, 0x00, 0xff, 0x03, 0x00, 0xfb, 0x00, 0xfb, 0xff, 0x00, 0x00, 0x00, 0xfe, 0x00, 0x02, 0xf9, 0x00, 0xf7, 0x06, 0x00, 0xff, 0x00, 0xf7, 0x00, 0xfd, 0x00, 0x00, 0x03, 0x00, 0xff, 0x05, 0x01, 0x00, 0xff, 0xff, 0x01, 0x00, 0x01, 0x01, 0x00, 0x00, 0x00, 0x00, 0x01, 0xff, 0xfd, 0x00, 0xff, 0x00, 0xea, 0x0b, 0xf8, 0x01, 0x00, 0xfc, 0x01, 0x00, 0xff, 0x00, 0x00, 0xe8, 0x00, 0x00, 0x00, 0xf8, 0xfc, 0x00, 0x01, 0x00, 0x00, 0x00, 0x00, 0x00, 0x00, 0x00, 0x02, 0x0c, 0xfa, 0xb8, 0x02, 0x0e, 0x00, 0xf8, 0x00, 0xda, 0x00, 0xf7, 0x00, 0xdd, 0x01, 0xf4, 0x00, 0x00, 0x00, 0x00, 0xf9, 0xf8, 0x00, 0x00, 0x02, 0x00, 0x00, 0x00, 0x03, 0x00, 0xfc, 0x00, 0x18, 0xfa, 0x00, 0x00, 0xf7, 0x0d, 0x00, 0x00, 0xfd, 0x00, 0x00, 0x00, 0x01, 0xfb, 0x00, 0x07, 0x00, 0x00, 0x00, 0x00, 0x01, 0x01, 0xf7, 0x01, 0x05, 0x00, 0x00, 0x0a, 0x00, 0x00, 0x00, 0xf7, 0x00, 0x0a, 0x00, 0x06, 0x00, 0x00, 0x00, 0x0e, 0x00, 0x00, 0x00, 0x04, 0xff, 0x00, 0x00, 0x00, 0xdf, 0x00, 0x00, 0xfc, 0x17, 0x00, 0xea, 0x00, 0xf8, 0x00, 0x00, 0x02, 0x00, 0xff, 0xca, 0xfe, 0x00, 0xfe, 0x00, 0xff, 0x00, 0xfc, 0xfa, 0xf2, 0xfc, 0xf0, 0x00, 0xfc, 0x00, 0x00, 0xfe, 0x01, 0x00, 0xe5, 0x00, 0x00, 0x00, 0xff, 0x00, 0x00, 0x00, 0x00, 0x00, 0x00, 0x00, 0x00, 0x00, 0x00, 0xfe, 0xee, 0xfb, 0xd5, 0x00, 0xef, 0xf2, 0x01, 0x00, 0xd9, 0x00, 0x01, 0x00, 0xdb, 0x00, 0xbc, 0x00, 0x00, 0x00, 0x00, 0x00, 0x00, 0x00, 0xff, 0xfb, 0x01, 0xfd, 0x00, 0xf2, 0xff, 0x00, 0xff, 0xf1, 0xfc, 0x01, 0x00, 0xfb, 0xf1, 0x00, 0x00, 0x00, 0xf0, 0x00, 0x00, 0x00, 0xfc, 0x00, 0xec, 0x01, 0x00, 0x00, 0x01, 0xff, 0x00, 0x00, 0xff, 0xfe, 0xff, 0x00, 0xe2, 0x00, 0x00, 0x00, 0x01, 0x00, 0xfc, 0xff, 0xe5, 0x00, 0x00, 0x03, 0xff, 0x00, 0x00, 0x00, 0x00, 0xff, 0x00, 0xff, 0x01, 0xd8, 0x00, 0xf4, 0xc3, 0xec, 0x00, 0xe9, 0x00, 0xb9, 0x00, 0x00, 0xf1, 0x00, 0x00, 0xd6, 0x00, 0x01, 0xfd, 0x00, 0x00, 0xfe, 0x00, 0xfc, 0x03, 0x03, 0x01, 0x00, 0xf8, 0x00, 0x00, 0xff, 0x01, 0x01, 0x01, 0x01, 0xff, 0x00, 0x00, 0xff, 0xff, 0x00, 0xfe, 0x01, 0x00, 0xfe, 0x01, 0xff, 0x01, 0x01, 0x00, 0x02, 0x2c, 0x06, 0x04, 0x18, 0x00, 0x01, 0x02, 0xfe, 0x00, 0x01, 0x0a, 0x00, 0xfe, 0x00, 0x01, 0x01, 0x00, 0x00, 0x00, 0x00, 0x00, 0x04, 0x02, 0x01, 0x00, 0x04, 0x00, 0x00, 0x02, 0x06, 0x03, 0x00, 0x01, 0x02, 0x05, 0xfe, 0x00, 0x01, 0x00, 0x01, 0x01, 0xfa, 0x00, 0x00, 0xfe, 0xfd, 0x01, 0x00, 0x00, 0x01, 0xfd, 0x00, 0xfd, 0xd9, 0x00, 0x00, 0x01, 0xff, 0x00, 0x01, 0x01, 0x02, 0x03, 0x00, 0x05, 0x00, 0xff, 0xe6, 0x00, 0x01, 0xfb, 0x00, 0xc1, 0x00, 0x00, 0x00, 0x00, 0x06, 0x01, 0x05, 0x08, 0x15, 0x00, 0x00, 0x00, 0x04, 0xfe, 0xff, 0xf9, 0x00, 0x00, 0x47, 0x00, 0x06, 0x01, 0x01, 0xf9, 0xfe, 0x00, 0x02, 0xf6, 0x00, 0x09, 0xf8, 0x04, 0x01, 0xff, 0x01, 0x01, 0xff, 0x06, 0x00, 0x00, 0x01, 0x00, 0x01, 0xfe, 0x00, 0x00, 0xfe, 0x00, 0x01, 0xf6, 0x00, 0xfe, 0x01, 0xf9, 0xff, 0xf3, 0x00, 0x02, 0xfe, 0x00, 0xff, 0x03, 0x02, 0x00, 0xfe, 0x00, 0x00, 0xfc, 0xff, 0x00, 0x00, 0xfe, 0xff, 0x00, 0x01, 0x01, 0x03, 0x01, 0x01, 0xff, 0x05, 0x00, 0x00, 0xff, 0x02, 0xfe, 0x00, 0xff, 0x00, 0xf9, 0xff, 0xff, 0x01, 0x02, 0xff, 0xff, 0x02, 0xff, 0x00, 0x02, 0x00, 0xff, 0xf7, 0x00, 0x00, 0x00, 0x01, 0x02, 0x0e, 0x00, 0xfa, 0x02, 0xf8, 0x00, 0xff, 0x00, 0x00, 0xfa, 0x02, 0x00, 0xfb, 0x00, 0x00, 0x07, 0xff, 0x01, 0x00, 0xf6, 0x01, 0xfb, 0x01, 0xfe, 0x04, 0xff, 0x02, 0x00, 0xf3, 0xff, 0xff, 0x00, 0x02, 0xff, 0xfb, 0xff, 0x00, 0x00, 0xe1, 0x01, 0x00, 0x00, 0xfb, 0x06, 0xfd, 0x01, 0x00, 0x03, 0x01, 0xf6, 0xf5, 0x01, 0x00, 0x01, 0x00, 0x00, 0x00, 0xdc, 0x00, 0x00, 0x01, 0x00, 0x01, 0x00, 0x01, 0x00, 0x00, 0x00, 0x00, 0xf7, 0x00, 0x00, 0xfe, 0x00, 0x01, 0xf2, 0x01, 0xff, 0x00, 0x00, 0xff, 0xbc, 0x00, 0x00, 0xff, 0xc0, 0x00, 0xfe, 0x00, 0x00, 0xfe, 0x02, 0x00, 0x00, 0x00, 0x01, 0x00, 0x01, 0x01, 0x00, 0x05, 0x00, 0x00, 0x02, 0xf4, 0x01, 0x00, 0x00, 0x01, 0xf9, 0x00, 0x00, 0x00, 0xed, 0x00, 0x00, 0x02, 0x00, 0x00, 0x03, 0x00, 0x01, 0xf9, 0x01, 0x00, 0x01, 0x01, 0x01, 0x11, 0x00, 0xf9, 0x02, 0xf9, 0x01, 0x00, 0x01, 0x00, 0x01, 0x00, 0xfc, 0xf8, 0x00, 0x0a, 0x03, 0x00, 0x00, 0x00, 0x0a, 0x00, 0xfb, 0x01, 0x00, 0xbd, 0x00, 0xff, 0x08, 0x01, 0x00, 0xc7, 0x00, 0x02, 0xff, 0x00, 0x04, 0x00, 0x00, 0xf3, 0x00, 0x00, 0xfe, 0xfc, 0xfd, 0x00, 0x00, 0x01, 0x05, 0xff, 0xfc, 0xf3, 0xfe, 0x00, 0xfe, 0x04, 0x00, 0xff, 0x04, 0x01, 0xff, 0xff, 0x00, 0x01, 0x00, 0x01, 0xff, 0xff, 0x00, 0x02, 0xf6, 0xff, 0xff, 0x01, 0x06, 0x00, 0x02, 0x02, 0xff, 0x11, 0x00, 0xff, 0x0b, 0x01, 0x00, 0xff, 0x04, 0x02, 0x06, 0x00, 0x01, 0x01, 0xff, 0xff, 0x00, 0x00, 0x01, 0x04, 0x01, 0x01, 0x00, 0x04, 0xff, 0x00, 0xff, 0x03, 0xff, 0x00, 0xfe, 0x00, 0x0a, 0xfe, 0x00, 0x00, 0x00, 0xff, 0x00, 0x00, 0x00, 0x00, 0x00, 0xff, 0x00, 0xf6, 0x00, 0x00, 0x00, 0xff, 0xff, 0x03, 0x01, 0xf9, 0xfe, 0xf9, 0xff, 0xff, 0x00, 0x01, 0x04, 0x00, 0x02, 0xf8, 0x00, 0xff, 0xfd, 0xff, 0xff, 0x00, 0x0b, 0x00, 0xfa, 0x00, 0xff, 0xfd, 0xff, 0xfd, 0x00, 0x0f, 0xff, 0x01, 0xff, 0x08, 0x01, 0xfe, 0x01, 0x00, 0x00, 0x01, 0x00, 0x02, 0xfd, 0xfb, 0x05, 0xfe, 0x01, 0x01, 0xf3, 0xff, 0xff, 0xf3, 0x02, 0xff, 0x00, 0xfd, 0x00, 0x00, 0xfe, 0xff, 0x00, 0x00, 0x00, 0x00, 0xff, 0xff, 0x00, 0x00, 0x00, 0xff, 0xf4, 0x00, 0x00, 0xff, 0x02, 0x00, 0xfd, 0xfa, 0x03, 0xed, 0x00, 0xff, 0x01, 0xff, 0x00, 0x00, 0x04, 0x00, 0xde, 0x00, 0x00, 0xff, 0x00, 0x00, 0x00, 0x00, 0xff, 0xfa, 0x00, 0xfd, 0x00, 0xf8, 0x00, 0x00, 0x00, 0x04, 0x00, 0x00, 0x00, 0xff, 0x02, 0x00, 0x00, 0x00, 0xfe, 0x00, 0x00, 0x02, 0xff, 0x00, 0x03, 0x00, 0x00, 0xf2, 0x00, 0x00, 0xff, 0x00, 0xfe, 0x01, 0x00, 0xf8, 0x06, 0xf6, 0x00, 0x00, 0x00, 0x00, 0xfe, 0xff, 0x04, 0xf7, 0x00, 0x04, 0x02, 0x00, 0xfe, 0x00, 0x06, 0x00, 0xfb, 0xff, 0x00, 0x01, 0x00, 0x00, 0xd5, 0x04, 0x00, 0x04, 0x00, 0xd1, 0x00, 0x00, 0x01, 0x00, 0x00, 0xf9, 0xff, 0x00, 0x00, 0xfc, 0xfd, 0xff, 0x00, 0x00, 0x10, 0x02, 0x02, 0x00, 0xf0, 0x00, 0x01, 0xff, 0x00, 0x01, 0xfc, 0xff, 0x00, 0x00, 0x00, 0x01, 0x01, 0x00, 0x01, 0x00, 0x00, 0xfe, 0xff, 0x00, 0x00, 0x01, 0x01, 0x02, 0xa4, 0x07, 0x03, 0x17, 0x00, 0x00, 0x03, 0xff, 0x00, 0xff, 0xfb, 0x01, 0xfe, 0x01, 0xff, 0xff, 0x02, 0x01, 0x01, 0x00, 0x00, 0x00, 0xfe, 0x00, 0x00, 0x09, 0xfe, 0xff, 0x01, 0x0b, 0x02, 0x00, 0x01, 0x03, 0x04, 0x01, 0x00, 0xff, 0x07, 0x01, 0x01, 0xf0, 0x01, 0x00, 0x05, 0x01, 0x01, 0x00, 0x00, 0x00, 0xfa, 0x00, 0xfd, 0x96, 0xff, 0x00, 0x01, 0x00, 0xfd, 0x01, 0x00, 0x00, 0x04, 0x00, 0x01, 0x00, 0x00, 0xe4, 0x02, 0x01, 0xfc, 0x00, 0x95, 0x00, 0x00, 0x00, 0x01, 0xfe, 0x00, 0x01, 0xfe, 0x0b, 0x00, 0xfc, 0x00, 0xfe, 0xff, 0x01, 0x09, 0x00, 0x00, 0xc2, 0xff, 0x05, 0xf8, 0x00, 0xf8, 0xff, 0xff, 0x01, 0xe8, 0x00, 0x00, 0x00, 0x01, 0x00, 0x01, 0x01, 0x00, 0x01, 0xd7, 0x00, 0x01, 0x00, 0x00, 0x00, 0x00, 0xfe, 0x02, 0x00, 0x00, 0x00, 0x00, 0x01, 0x00, 0xfe, 0xfb, 0x00, 0xa9, 0x00, 0xc3, 0xed, 0x00, 0xff, 0xc7, 0xff, 0x00, 0x01, 0xcd, 0xfd, 0x10, 0x00, 0x00, 0x01, 0x00, 0x01, 0x01, 0xff, 0x00, 0xfc, 0x00, 0xfd, 0x00, 0xeb, 0x00, 0x00, 0x00, 0xfc, 0x00, 0x00, 0x00, 0x00, 0xfa, 0x01, 0x00, 0x00, 0x03, 0x00, 0x00, 0x00, 0x00, 0x00, 0xd0, 0x01, 0x00, 0x00, 0x00, 0x00, 0x01, 0x00, 0x00, 0xfe, 0xfe, 0x00, 0xcd, 0x00, 0xff, 0x00, 0x00, 0x00, 0xfc, 0x00, 0xd6, 0x00, 0x00, 0x07, 0x05, 0x00, 0x01, 0x00, 0x0d, 0x01, 0x00, 0x00, 0x00, 0xc9, 0x00, 0xfd, 0x07, 0x06, 0x00, 0xd3, 0x00, 0x08, 0x00, 0x00, 0xfd, 0x00, 0x01, 0xba, 0x00, 0xff, 0xff, 0x00, 0xf9, 0x00, 0x00, 0xff, 0xfe, 0x01, 0x01, 0x00, 0x01, 0xf9, 0x00, 0xfa, 0xf4, 0x00, 0x00, 0xfe, 0x00, 0x00, 0x01, 0x00, 0x00, 0x00, 0x00, 0x00, 0x00, 0x01, 0x00, 0x00, 0x00, 0x00, 0xff, 0x00, 0x0f, 0x00, 0xe7, 0xed, 0x00, 0x00, 0x01, 0x00, 0x00, 0x00, 0x01, 0x00, 0xf6, 0x00, 0xf7, 0xff, 0xff, 0x01, 0x00, 0x00, 0x00, 0xfb, 0xff, 0xfd, 0x00, 0xf7, 0x00, 0x00, 0x00, 0x01, 0x01, 0x00, 0x00, 0x00, 0x01, 0x00, 0x00, 0x00, 0x01, 0x00, 0x00, 0x00, 0x00, 0x00, 0xed, 0xff, 0xff, 0x00, 0x00, 0x00, 0x01, 0x00, 0x00, 0xcf, 0x00, 0x00, 0xe9, 0x00, 0x00, 0x00, 0x00, 0x00, 0x00, 0x00, 0xf0, 0x00, 0x00, 0xfa, 0xfd, 0x00, 0x00, 0x00, 0xca, 0x00, 0x00, 0xff, 0x00, 0x00, 0x00, 0x01, 0xf6, 0x06, 0x00, 0x00, 0x00, 0xe9, 0x01, 0x01, 0x00, 0x00, 0x01, 0x0e, 0x00, 0x00, 0xfd, 0x00, 0xfd, 0x00, 0x00, 0x01, 0xf4, 0x01, 0x02, 0x01, 0x00, 0x00, 0x00, 0x03, 0x00, 0x00, 0x09, 0x00, 0x00, 0x00, 0xfd, 0xfc, 0x00, 0x00, 0x00, 0x00, 0xff, 0x01, 0x01, 0xff, 0x00, 0x02, 0xfe, 0x02, 0xb3, 0x03, 0xc8, 0xf1, 0xfd, 0x01, 0x04, 0xff, 0xfe, 0x01, 0x0b, 0x01, 0xd4, 0x00, 0x00, 0x02, 0x03, 0xfb, 0xfe, 0x00, 0xff, 0x00, 0x00, 0xfb, 0x00, 0xde, 0x00, 0x01, 0x00, 0xff, 0x01, 0x00, 0x00, 0x01, 0x07, 0x00, 0x00, 0x01, 0x04, 0x01, 0x00, 0xfe, 0x00, 0x00, 0xe1, 0x02, 0x00, 0x02, 0x00, 0x00, 0x00, 0xfc, 0x03, 0x06, 0x00, 0x01, 0xc2, 0x01, 0x00, 0x01, 0xfc, 0x00, 0xf9, 0xff, 0xd1, 0x01, 0x00, 0xf5, 0xf6, 0x00, 0x01, 0x00, 0xf0, 0xff, 0x01, 0xfe, 0x00, 0xfb, 0x00, 0x01, 0xf0, 0xc8, 0x00, 0x04, 0x00, 0xd2, 0x00, 0xff, 0x03, 0x00, 0xfe, 0xcc, 0x01, 0x02, 0xf9, 0x01, 0x05, 0x02, 0x01, 0x02, 0x0d, 0xfb, 0x02, 0x00, 0xfa, 0x00, 0x00, 0x00, 0xff, 0xff, 0xff, 0x00, 0x00, 0xff, 0xf4, 0xf9, 0xff, 0xfe, 0x00, 0x00, 0x00, 0x00, 0x00, 0x00, 0x00, 0x00, 0x07, 0xfb, 0xb4, 0x04, 0x0c, 0x00, 0xf3, 0x00, 0x03, 0x00, 0xf3, 0x00, 0xfe, 0x00, 0x00, 0x00, 0x00, 0xff, 0x00, 0xf4, 0xf3, 0x00, 0x00, 0x02, 0x00, 0xfe, 0x00, 0x0b, 0x00, 0xff, 0x00, 0x04, 0xf9, 0xff, 0x00, 0xf8, 0x0c, 0x00, 0x00, 0x00, 0x01, 0x00, 0x00, 0xfe, 0xfb, 0x00, 0x0e, 0x00, 0x00, 0x00, 0x00, 0x00, 0x00, 0xf4, 0x00, 0x04, 0x00, 0x00, 0x10, 0x00, 0x00, 0x00, 0xf4, 0x00, 0x00, 0x00, 0x08, 0x00, 0x00, 0xf7, 0x09, 0x00, 0x00, 0xff, 0x07, 0x00, 0x00, 0x00, 0x00, 0x00, 0x00, 0x00, 0xfd, 0x1c, 0x00, 0xfe, 0x00, 0xff, 0x00, 0x00, 0x02, 0x00, 0x01, 0xc8, 0x00, 0x00, 0x00, 0x00, 0x01, 0x01, 0x00, 0xfa, 0x0a, 0x01, 0x02, 0x00, 0x01, 0xfc, 0x00, 0xf8, 0xfa, 0x00, 0xe5, 0x00, 0x00, 0x00, 0xf8, 0xfc, 0x00, 0x01, 0x00, 0x00, 0xff, 0x00, 0x00, 0x00, 0x00, 0x01, 0x03, 0x01, 0x03, 0xfe, 0x06, 0xf5, 0xf8, 0x00, 0xd9, 0x00, 0xf6, 0xff, 0xd8, 0x00, 0x07, 0x00, 0xfc, 0xff, 0xff, 0xf6, 0xf6, 0x00, 0x00, 0xfe, 0x00, 0x02, 0x00, 0x05, 0x00, 0x00, 0x00, 0x02, 0x00, 0x00, 0x00, 0x00, 0x02, 0x00, 0x00, 0x00, 0xfb, 0x00, 0x00, 0x00, 0x01, 0x00, 0x0b, 0x00, 0x00, 0x00, 0x00, 0x00, 0x00, 0xf7, 0x00, 0xb1, 0x00, 0x00, 0x0b, 0x00, 0xff, 0x00, 0xf8, 0x00, 0x00, 0x00, 0x14, 0x00, 0x00, 0xfc, 0x09, 0x00, 0x00, 0x00, 0xa6, 0x01, 0x00, 0x00, 0x00, 0xd8, 0x00, 0x01, 0xfd, 0xf6, 0x00, 0xec, 0x00, 0x03, 0x00, 0x01, 0x02, 0x00, 0x00, 0xfc, 0x00, 0x01, 0x00, 0x00, 0x01, 0x01, 0x00, 0x01, 0xe1, 0x00, 0xf2, 0x00, 0x02, 0x00, 0x00, 0x01, 0x00, 0x00, 0xe7, 0xff, 0x00, 0xfe, 0x00, 0x00, 0xff, 0xff, 0x00, 0x00, 0x00, 0x01, 0x00, 0x00, 0x00, 0xfe, 0x00, 0x01, 0xf4, 0x09, 0xc9, 0xf8, 0x02, 0x00, 0xda, 0x00, 0x00, 0xff, 0xe1, 0x00, 0xc8, 0x00, 0x00, 0x01, 0x01, 0x00, 0x00, 0xff, 0xfe, 0xff, 0x01, 0xfc, 0x01, 0xdd, 0x00, 0x00, 0xff, 0x02, 0x00, 0xff, 0xff, 0x00, 0x01, 0x00, 0x00, 0xff, 0xf4, 0xff, 0x00, 0xff, 0x01, 0x00, 0xdb, 0xff, 0x00, 0x00, 0x00, 0x00, 0x02, 0x00, 0x00, 0x05, 0x00, 0x00, 0xd8, 0x00, 0x01, 0x00, 0x00, 0x00, 0xf3, 0xfe, 0xe0, 0x00, 0x00, 0xfe, 0xf1, 0x00, 0x01, 0x00, 0xf8, 0xfe, 0x00, 0xfd, 0x01, 0xdc, 0x00, 0x00, 0xe4, 0xcc, 0x00, 0xef, 0xff, 0xcc, 0x00, 0x01, 0x00, 0x00, 0x01, 0xe8, 0xff, 0x01, 0x00, 0x00, 0xff, 0xfe, 0xff, 0x00, 0x01, 0xfe, 0xfd, 0x00, 0xfe, 0x00, 0x00, 0x00, 0x00, 0x00, 0x00, 0xff, 0x00, 0x01, 0x00, 0x00, 0x00, 0x00, 0x00, 0x00, 0x00, 0xff, 0x00, 0x00, 0x00, 0xff, 0xf2, 0xfd, 0xb2, 0xf9, 0xcc, 0xfe, 0x01, 0x00, 0x00, 0xff, 0x00, 0x00, 0x07, 0x00, 0xea, 0x00, 0x00, 0xfd, 0xfe, 0x01, 0x01, 0x00, 0x01, 0x02, 0xff, 0x02, 0x00, 0x05, 0x00, 0xff, 0x00, 0xee, 0xff, 0x00, 0x00, 0xfe, 0xf4, 0x00, 0x00, 0xff, 0xfd, 0x00, 0x00, 0x00, 0xff, 0x00, 0xcc, 0x00, 0x00, 0x00, 0x00, 0x00, 0x00, 0x01, 0xfe, 0x9d, 0x00, 0x00, 0xc7, 0x00, 0xfe, 0x00, 0x01, 0x00, 0x00, 0x00, 0xcb, 0x00, 0x00, 0xea, 0xfc, 0x00, 0xff, 0x00, 0x9c, 0x00, 0x00, 0x01, 0x00, 0xfe, 0x00, 0xfd, 0xf7, 0x05, 0x00, 0x00, 0x00, 0xe6, 0x00, 0x00, 0x00, 0x00, 0xff, 0xc6, 0xff, 0xff, 0xf9, 0x00, 0xf8, 0x00, 0xff, 0xff, 0x05, 0x01, 0x01, 0xff, 0x06, 0x01, 0x00, 0x00, 0x01, 0xfe, 0xff, 0xfe, 0x00, 0x00, 0x05, 0x05, 0xff, 0x00, 0x01, 0x01, 0x01, 0x02, 0xff, 0x01, 0x00, 0x01, 0x01, 0x01, 0xf5, 0x00, 0x0c, 0xf9, 0x03, 0x00, 0x03, 0xff, 0x02, 0xff, 0x05, 0x00, 0xfb, 0xff, 0x00, 0xfe, 0x00, 0x04, 0x02, 0x00, 0x00, 0x02, 0xfe, 0xfd, 0x01, 0xfc, 0x02, 0x01, 0x00, 0x00, 0x00, 0x00, 0xff, 0xfe, 0x0d, 0x00, 0x01, 0x00, 0xfe, 0xff, 0xff, 0xfd, 0x00, 0x00, 0x04, 0x01, 0xfe, 0x00, 0x00, 0x00, 0xfe, 0x03, 0x01, 0x07, 0x01, 0xfe, 0x02, 0xfe, 0x00, 0x00, 0x03, 0xff, 0xf9, 0x00, 0x08, 0xff, 0x00, 0xff, 0xfe, 0xfe, 0x01, 0x01, 0xf2, 0x00, 0xff, 0xff, 0x00, 0xfe, 0xff, 0x09, 0xf4, 0x01, 0xff, 0x07, 0xff, 0xfc, 0x01, 0x00, 0x08, 0x00, 0x02, 0x06, 0x01, 0x02, 0x00, 0xfd, 0x05, 0x02, 0x01, 0x00, 0x00, 0x05, 0x02, 0x01, 0x03, 0x01, 0xff, 0x02, 0x01, 0x01, 0x15, 0x04, 0x00, 0x01, 0x00, 0x01, 0x01, 0x02, 0xff, 0x00, 0x00, 0x03, 0x02, 0xff, 0x00, 0x03, 0x14, 0x04, 0x0c, 0x0f, 0xff, 0x11, 0x00, 0x00, 0x11, 0x01, 0x01, 0x01, 0xfc, 0x01, 0x03, 0x00, 0x00, 0x01, 0x04, 0x01, 0xff, 0x01, 0x01, 0x01, 0x02, 0x01, 0x00, 0x0e, 0x01, 0x01, 0x00, 0x0c, 0x05, 0x00, 0x00, 0x04, 0x0b, 0x00, 0x01, 0x01, 0x0b, 0x00, 0x00, 0x02, 0x05, 0x01, 0xfd, 0x02, 0x00, 0x02, 0x01, 0x00, 0x03, 0x00, 0x00, 0xfe, 0x01, 0x00, 0xfe, 0x01, 0x02, 0x00, 0x00, 0x01, 0x05, 0x00, 0x01, 0x01, 0x00, 0x0e, 0xfd, 0x01, 0x02, 0x00, 0x02, 0x01, 0x01, 0x00, 0x00, 0x01, 0x00, 0xfd, 0x00, 0x0f, 0x00, 0x0e, 0x01, 0xfd, 0x00, 0xff, 0x13, 0x01, 0x00, 0x20, 0x01, 0x03, 0x05, 0x00, 0x05, 0x01, 0x02, 0x05, 0x01, 0x01, 0x00, 0xfe, 0xfc, 0x00, 0x00, 0xff, 0x00, 0xff, 0x00, 0x01, 0x00, 0x00, 0x01, 0x00, 0xff, 0xfd, 0x00, 0xfc, 0x00, 0xfd, 0x01, 0x00, 0xff, 0x01, 0x03, 0x00, 0x12, 0x01, 0xff, 0x06, 0x01, 0x00, 0xfb, 0x01, 0x00, 0x00, 0x05, 0x00, 0xa4, 0x00, 0x00, 0xfc, 0xff, 0x00, 0x01, 0x00, 0x00, 0x00, 0x01, 0x00, 0xfd, 0x06, 0xfe, 0x00, 0xfe, 0x03, 0x00, 0xff, 0x00, 0x01, 0x02, 0x00, 0xfb, 0x00, 0x0a, 0xff, 0x00, 0xfa, 0x01, 0x00, 0x00, 0x00, 0xff, 0xff, 0xff, 0x00, 0xfe, 0x00, 0x00, 0xf6, 0x00, 0x00, 0xff, 0x00, 0xfe, 0x00, 0x00, 0x00, 0x04, 0x00, 0x00, 0x00, 0x00, 0xef, 0x00, 0xff, 0xfe, 0x00, 0xf9, 0x00, 0xff, 0x00, 0x00, 0xfe, 0xff, 0xff, 0xb9, 0x03, 0x00, 0xfb, 0x00, 0xb2, 0xff, 0xfe, 0xff, 0xff, 0x00, 0xfe, 0x01, 0x03, 0x00, 0xff, 0xfc, 0xfc, 0x00, 0x01, 0xfe, 0x01, 0x00, 0x00, 0x00, 0x00, 0x00, 0x01, 0x00, 0x00, 0x00, 0x01, 0x00, 0x00, 0xf2, 0xfb, 0x00, 0x01, 0x01, 0xff, 0x00, 0x00, 0x00, 0x00, 0x00, 0x00, 0xff, 0x01, 0x16, 0x03, 0x0a, 0x01, 0xf4, 0x00, 0x01, 0x01, 0xf1, 0x00, 0x00, 0x00, 0xd5, 0x00, 0x00, 0x00, 0x01, 0xef, 0xf0, 0x01, 0x01, 0x01, 0x01, 0x01, 0xff, 0xff, 0x00, 0x00, 0x00, 0xfb, 0x01, 0x00, 0x00, 0x00, 0xfd, 0x00, 0xff, 0x00, 0x02, 0x00, 0x00, 0x01, 0x01, 0x00, 0x11, 0x00, 0x00, 0xff, 0x00, 0xff, 0x01, 0xf7, 0x01, 0x05, 0x00, 0x00, 0x10, 0x00, 0x00, 0xff, 0xf1, 0x00, 0xff, 0x01, 0x10, 0x00, 0x00, 0x06, 0xff, 0x00, 0x01, 0x00, 0x04, 0x01, 0x00, 0x01, 0x00, 0x01, 0xff, 0xfd, 0xd3, 0xf2, 0x00, 0x03, 0x00, 0xd0, 0x00, 0xfe, 0xfe, 0x00, 0xff, 0x0e, 0x00, 0x02, 0x02, 0x00, 0x08, 0x00, 0x00, 0x00, 0xde, 0x01, 0xfe, 0x00, 0x02, 0x00, 0x00, 0x01, 0xff, 0x00, 0x01, 0x01, 0x00, 0xfe, 0x01, 0x00, 0x02, 0x00, 0x00, 0x00, 0x00, 0x00, 0x00, 0x00, 0x00, 0x00, 0xd9, 0x00, 0xb7, 0x00, 0xd5, 0xee, 0x00, 0x01, 0x07, 0x00, 0x00, 0x00, 0xfa, 0xff, 0xeb, 0x00, 0x00, 0x02, 0x01, 0x01, 0xff, 0xff, 0xff, 0xfd, 0x00, 0xfd, 0x00, 0xe1, 0x00, 0x00, 0xff, 0xd1, 0x00, 0x00, 0x00, 0x02, 0xc4, 0x00, 0x00, 0x00, 0x04, 0x00, 0x00, 0x00, 0x00, 0x00, 0xd3, 0x01, 0x00, 0x00, 0x00, 0x00, 0xff, 0x01, 0x01, 0xfe, 0x00, 0x00, 0xd8, 0xff, 0x01, 0x00, 0x01, 0x00, 0xf4, 0xfe, 0xe6, 0x00, 0x00, 0xf8, 0xef, 0x00, 0x01, 0x00, 0xf9, 0xfd, 0x00, 0xfd, 0x01, 0x07, 0x00, 0xfe, 0xdd, 0xd1, 0x00, 0xfe, 0x00, 0xeb, 0xff, 0x01, 0xff, 0x00, 0xff, 0xcb, 0x00, 0x04, 0xfe, 0x01, 0x04, 0x01, 0x00, 0x01, 0x0b, 0xff, 0xf3, 0x01, 0xf8, 0x00, 0x01, 0xff, 0x00, 0x01, 0x01, 0xfb, 0x00, 0x01, 0x00, 0x00, 0x00, 0xff, 0xff, 0x00, 0x00, 0xfc, 0x00, 0x00, 0x01, 0xfe, 0x06, 0xff, 0xda, 0x03, 0x04, 0x11, 0x01, 0x01, 0x01, 0x00, 0x01, 0xff, 0x03, 0x00, 0x07, 0x01, 0x00, 0xfe, 0x02, 0x00, 0x00, 0x00, 0x01, 0x02, 0xfd, 0x00, 0x00, 0x05, 0xfc, 0x00, 0x00, 0x01, 0xfe, 0x00, 0x01, 0x00, 0x01, 0x00, 0x00, 0x00, 0xfe, 0x01, 0x00, 0xfa, 0x00, 0xff, 0x07, 0x01, 0x01, 0x00, 0x00, 0x00, 0xff, 0x00, 0x00, 0x9c, 0x00, 0x00, 0x06, 0x00, 0xfc, 0x01, 0x00, 0x00, 0x02, 0x00, 0x07, 0x00, 0x00, 0xec, 0x06, 0x01, 0x00, 0x00, 0x88, 0x01, 0x00, 0x00, 0x00, 0x0c, 0x01, 0xff, 0x03, 0x07, 0x01, 0xf7, 0x00, 0x04, 0x00, 0x00, 0xfb, 0x00, 0xff, 0xf2, 0x00, 0x05, 0xf0, 0x00, 0xe5, 0xfb, 0x00, 0xff, 0xfd, 0xe8, 0x04, 0x01, 0xfc, 0x00, 0x00, 0xfd, 0x00, 0xff, 0x04, 0x00, 0x00, 0x00, 0x00, 0x00, 0x00, 0x00, 0x00, 0x00, 0x00, 0x00, 0x00, 0x00, 0x00, 0x01, 0xfd, 0xe8, 0xc5, 0x01, 0xce, 0xec, 0x00, 0x00, 0x03, 0x00, 0x00, 0xff, 0xfd, 0x00, 0xf9, 0x00, 0x00, 0x00, 0xff, 0xff, 0x00, 0x00, 0x00, 0xfd, 0x01, 0x00, 0x00, 0xfa, 0x00, 0x00, 0xff, 0x0c, 0xe7, 0x00, 0x00, 0xe6, 0x0b, 0x00, 0x00, 0x01, 0x01, 0x00, 0x00, 0xff, 0xe8, 0x00, 0xd5, 0x00, 0x00, 0x00, 0x00, 0x00, 0x00, 0x00, 0x00, 0x01, 0xff, 0x00, 0xd4, 0x00, 0x00, 0x00, 0x00, 0x00, 0xff, 0x00, 0xda, 0x00, 0x00, 0xf9, 0x02, 0x00, 0x00, 0x00, 0xf7, 0x00, 0x00, 0x00, 0x00, 0x01, 0x00, 0x02, 0x00, 0x17, 0x00, 0x04, 0x00, 0x03, 0xff, 0x00, 0x01, 0x00, 0x00, 0xcf, 0x00, 0xff, 0xfd, 0x00, 0x00, 0x02, 0x00, 0xe9, 0xff, 0xe5, 0x05, 0x00, 0xff, 0x00, 0x00, 0x00, 0x00, 0x00, 0x00, 0x00, 0x00, 0x01, 0x01, 0x00, 0x00, 0x01, 0x00, 0x00, 0x00, 0x01, 0x00, 0x00, 0x00, 0x01, 0xfa, 0xe9, 0xd3, 0xff, 0x00, 0x00, 0x00, 0x00, 0xfd, 0x00, 0x00, 0x00, 0x04, 0x00, 0xc3, 0x00, 0x00, 0xff, 0x01, 0x00, 0x00, 0x00, 0x01, 0x00, 0x01, 0xff, 0x00, 0x05, 0x00, 0x01, 0x01, 0xf0, 0xea, 0x00, 0x00, 0xe9, 0xfc, 0x00, 0x00, 0x01, 0x04, 0x00, 0x00, 0xff, 0xe7, 0x00, 0x01, 0x00, 0x00, 0x00, 0x00, 0x00, 0x02, 0x00, 0x01, 0x03, 0x00, 0x00, 0xff, 0x00, 0x01, 0x00, 0x00, 0x00, 0xfd, 0x00, 0xff, 0x00, 0x00, 0xfb, 0x01, 0x00, 0x02, 0x00, 0x02, 0x02, 0x00, 0x00, 0x00, 0x00, 0x00, 0x02, 0xcf, 0xf8, 0x00, 0xff, 0x00, 0xbf, 0x00, 0x00, 0xff, 0x00, 0x00, 0xdf, 0x01, 0x00, 0x00, 0x00, 0xfd, 0x01, 0x01, 0xe8, 0xfe, 0xf1, 0x00, 0x00, 0xff, 0x01, 0xff, 0x02, 0x01, 0x00, 0xde, 0x01, 0x00, 0x00, 0x00, 0x00, 0xff, 0x00, 0x00, 0x00, 0x00, 0x00, 0x00, 0x01, 0x00, 0x01, 0xfc, 0xf4, 0x0a, 0xfd, 0x00, 0x0a, 0x00, 0x00, 0xce, 0xff, 0x00, 0x02, 0xc2, 0x01, 0xd5, 0x00, 0x00, 0x00, 0xff, 0x00, 0x00, 0x00, 0x00, 0x05, 0x00, 0x01, 0x00, 0xfe, 0x00, 0xfe, 0x00, 0xf6, 0xf4, 0x00, 0x00, 0xf1, 0x04, 0xff, 0x00, 0xfe, 0xfe, 0x00, 0x00, 0xfd, 0xf1, 0x00, 0x02, 0xff, 0x01, 0x00, 0x00, 0x01, 0x00, 0x00, 0xfe, 0xe1, 0x00, 0x00, 0x03, 0x00, 0xff, 0x00, 0x00, 0x01, 0xfd, 0x00, 0x04, 0x00, 0x00, 0xfd, 0x05, 0x00, 0xff, 0x00, 0xe9, 0x00, 0x00, 0x00, 0xff, 0xc8, 0x00, 0xff, 0xde, 0xef, 0x00, 0xe0, 0x00, 0xd2, 0x01, 0xff, 0xff, 0x00, 0x00, 0x1a, 0xfe, 0x00, 0xff, 0x00, 0xff, 0x01, 0xfe, 0xf5, 0x07, 0xe3, 0xfb, 0x00, 0xff, 0x00, 0x00, 0xff, 0x00, 0x00, 0xef, 0x00, 0x00, 0x00, 0x00, 0x00, 0x02, 0x00, 0x00, 0x00, 0x00, 0xfe, 0x00, 0x00, 0x00, 0x00, 0x01, 0xe7, 0xd2, 0xfd, 0x03, 0x04, 0x00, 0x00, 0xdb, 0x00, 0x00, 0xff, 0xd9, 0x00, 0x03, 0x00, 0x00, 0x00, 0x00, 0x01, 0x01, 0x00, 0x00, 0x01, 0x00, 0x00, 0x00, 0xff, 0xfe, 0x00, 0x00, 0x0b, 0xe7, 0x00, 0x00, 0xe4, 0x0c, 0x00, 0xff, 0x00, 0xfe, 0x00, 0x00, 0xff, 0xe3, 0x00, 0x02, 0x00, 0x00, 0x00, 0x00, 0x00, 0x00, 0x00, 0x01, 0xfd, 0x00, 0x00, 0x00, 0x00, 0x00, 0x00, 0x00, 0x00, 0x00, 0x00, 0x04, 0x00, 0x00, 0xfb, 0x02, 0x00, 0x01, 0x00, 0xfd, 0x00, 0x00, 0x01, 0x00, 0xd9, 0x00, 0x00, 0x00, 0x06, 0x00, 0xec, 0x00, 0x02, 0xff, 0x01, 0x01, 0x00, 0x00, 0xd9, 0x00, 0x01, 0xfd, 0x00, 0xf6, 0xfe, 0x01, 0xe4, 0xe6, 0xf9, 0x04, 0x00, 0xfc, 0x00, 0x00, 0x01, 0x00, 0x00, 0x00, 0x00, 0x00, 0xff, 0x00, 0x00, 0x00, 0x01, 0xff, 0x00, 0x00, 0xfe, 0x00, 0x00, 0x00, 0x00, 0xe9, 0xf7, 0xfa, 0xfd, 0x02, 0x0e, 0x01, 0x00, 0xff, 0xff, 0x00, 0xff, 0x00, 0x00, 0xfe, 0x00, 0x00, 0x00, 0x00, 0x00, 0x00, 0xff, 0xff, 0x03, 0xff, 0x00, 0x00, 0x01, 0xff, 0xfb, 0x00, 0xe8, 0xf9, 0x00, 0x00, 0xf5, 0xe1, 0x00, 0x00, 0xfb, 0x00, 0x00, 0x00, 0xf7, 0xf6, 0xff, 0x06, 0x00, 0x00, 0x00, 0x00, 0x00, 0xfe, 0x01, 0xfe, 0xa6, 0x00, 0x00, 0x04, 0x00, 0xff, 0x00, 0x01, 0x00, 0xf6, 0x00, 0x02, 0x00, 0x00, 0xe9, 0xfe, 0x00, 0xfd, 0x00, 0xa3, 0xff, 0x00, 0x00, 0x00, 0xfe, 0x00, 0x00, 0x02, 0xf8, 0x00, 0x00, 0x00, 0xfe, 0x00, 0xff, 0x02, 0x00, 0xff, 0xf7, 0xfb, 0x02, 0x01, 0x00, 0xfa, 0x01, 0xf9, 0xf8, 0xf8, 0x00, 0xe7, 0x00, 0x00, 0x01, 0x00, 0x00, 0x01, 0x00, 0xeb, 0x00, 0x00, 0xff, 0xfa, 0xfc, 0x00, 0xff, 0x00, 0x00, 0x00, 0x00, 0x00, 0x00, 0x00, 0x00, 0xcb, 0xff, 0x0b, 0xff, 0x09, 0xfe, 0xf8, 0x00, 0xec, 0x00, 0xf6, 0x00, 0xe4, 0x00, 0x07, 0x00, 0x00, 0x00, 0x00, 0xf7, 0xf7, 0x00, 0xff, 0xff, 0x00, 0xfd, 0x00, 0xfe, 0x00, 0x00, 0xff, 0xc2, 0xff, 0xfe, 0x00, 0xff, 0xc0, 0x00, 0x00, 0x00, 0xe9, 0x00, 0x00, 0x00, 0xff, 0x00, 0x09, 0x00, 0x00, 0x00, 0x00, 0x00, 0x00, 0xf8, 0x00, 0x01, 0x00, 0x00, 0x0f, 0x00, 0xff, 0x00, 0xf7, 0x00, 0x00, 0x00, 0x0a, 0x00, 0x00, 0xfb, 0xff, 0x00, 0x00, 0x00, 0x03, 0x00, 0x00, 0x00, 0x00, 0xe2, 0x00, 0xe1, 0xfc, 0x18, 0x00, 0xe9, 0x00, 0x0a, 0xff, 0x00, 0xe5, 0x00, 0x00, 0x16, 0x01, 0x00, 0xfe, 0x00, 0xfe, 0xfe, 0x00, 0x00, 0x04, 0x00, 0x07, 0x00, 0x02, 0x01, 0xff, 0x05, 0x02, 0x00, 0x05, 0x00, 0xff, 0x02, 0x01, 0x00, 0xff, 0x03, 0xfe, 0x00, 0x00, 0x01, 0xff, 0xfe, 0x00, 0x01, 0x06, 0x04, 0x10, 0xfc, 0xfb, 0x07, 0x00, 0x00, 0xfc, 0x00, 0x00, 0x01, 0x09, 0x01, 0xf6, 0x00, 0x01, 0x01, 0x02, 0x01, 0x01, 0x00, 0x01, 0x04, 0x03, 0x07, 0x00, 0x0c, 0x01, 0x00, 0xff, 0x0a, 0x02, 0x01, 0x01, 0x00, 0x03, 0xfe, 0x01, 0x00, 0x01, 0x00, 0x00, 0xff, 0x03, 0x01, 0x00, 0x00, 0x00, 0x00, 0x01, 0x01, 0x00, 0x01, 0x00, 0xd2, 0x01, 0x00, 0x00, 0x01, 0x01, 0x01, 0x00, 0x01, 0x09, 0x01, 0xfa, 0x00, 0xff, 0xef, 0x05, 0x00, 0x00, 0x00, 0xe7, 0x01, 0x00, 0x02, 0x00, 0x02, 0x00, 0x0a, 0x02, 0xed, 0x01, 0x04, 0x00, 0x02, 0xff, 0x00, 0x00, 0x01, 0xff, 0x15, 0x00, 0x02, 0xff, 0xff, 0x04, 0x00, 0x00, 0x00, 0xfe, 0x00, 0x00, 0x01, 0xff, 0x01, 0x00, 0x01, 0x00, 0x00, 0xd5, 0xff, 0x00, 0x00, 0x00, 0x00, 0x00, 0xff, 0x01, 0x00, 0x00, 0x02, 0x00, 0x00, 0x01, 0xff, 0x11, 0x02, 0xad, 0x03, 0xde, 0xe6, 0xff, 0x00, 0xb4, 0xff, 0x00, 0x00, 0xc8, 0x00, 0xdd, 0x01, 0x00, 0xfd, 0xff, 0x00, 0x01, 0xff, 0xff, 0xfd, 0xff, 0x00, 0x00, 0xfb, 0x00, 0xff, 0x02, 0x12, 0x02, 0xff, 0x00, 0x03, 0x14, 0x00, 0x01, 0x00, 0xfc, 0x01, 0x00, 0xfe, 0x01, 0xff, 0xea, 0x00, 0x00, 0x00, 0xff, 0xff, 0xff, 0x01, 0x00, 0x09, 0x00, 0x00, 0xeb, 0x00, 0xff, 0x00, 0x00, 0xff, 0x06, 0xff, 0xe7, 0x00, 0x00, 0x07, 0xfe, 0x00, 0xff, 0xff, 0x12, 0x00, 0x00, 0xff, 0x01, 0xba, 0x00, 0x07, 0xdf, 0xf8, 0x00, 0xdd, 0x00, 0xd8, 0x01, 0x00, 0x00, 0xff, 0x01, 0xd8, 0x00, 0x02, 0xff, 0x00, 0x06, 0x03, 0x00, 0x01, 0x03, 0x01, 0xf4, 0xf5, 0x00, 0x00, 0x01, 0x01, 0x00, 0x00, 0xd9, 0xff, 0x00, 0x00, 0x00, 0x00, 0x00, 0x00, 0x00, 0x00, 0x00, 0x00, 0xf5, 0x00, 0x00, 0xfd, 0xfb, 0x00, 0xe2, 0xfd, 0x03, 0x03, 0x00, 0x00, 0xe0, 0x00, 0x00, 0xff, 0xdd, 0x00, 0x02, 0x00, 0x00, 0x01, 0x00, 0x00, 0x00, 0x00, 0x00, 0x01, 0x00, 0x01, 0x00, 0x01, 0x00, 0x00, 0x00, 0x04, 0x00, 0x00, 0x00, 0x01, 0x02, 0x00, 0x00, 0x00, 0xe8, 0x00, 0x00, 0xff, 0x00, 0x00, 0x01, 0x00, 0x00, 0xf6, 0x00, 0x00, 0x00, 0x00, 0x01, 0xfb, 0x00, 0xf9, 0x00, 0xf8, 0x01, 0x00, 0x00, 0x00, 0xff, 0x00, 0x03, 0xf8, 0x00, 0x04, 0x00, 0x00, 0x01, 0x00, 0x01, 0x00, 0xfb, 0x00, 0x00, 0xda, 0x00, 0xe3, 0xff, 0x00, 0x00, 0xdc, 0xff, 0x00, 0x00, 0x02, 0xdf, 0x00, 0x00, 0xf4, 0x00, 0x01, 0xff, 0xfd, 0xfe, 0xfe, 0x00, 0x00, 0xf5, 0x01, 0x02, 0x00, 0x01, 0x00, 0x00, 0x00, 0x00, 0x00, 0x09, 0x00, 0x00, 0x00, 0x00, 0x00, 0x00, 0x01, 0x00, 0xfd, 0x00, 0xff, 0x00, 0xff, 0x00, 0x00, 0xc8, 0x00, 0x02, 0x03, 0xcd, 0xff, 0x00, 0x00, 0x00, 0x00, 0x00, 0xff, 0x01, 0x00, 0xdb, 0x01, 0x00, 0xff, 0x00, 0x00, 0x00, 0x00, 0x00, 0x01, 0x00, 0x00, 0xfd, 0xf8, 0x00, 0x00, 0x00, 0xbd, 0x00, 0x00, 0x00, 0x01, 0xbe, 0x01, 0xfc, 0x00, 0x00, 0x00, 0x00, 0x02, 0x00, 0x00, 0xe0, 0x01, 0x00, 0x00, 0x00, 0x00, 0x00, 0x01, 0x00, 0x04, 0x00, 0x00, 0xdc, 0x00, 0x00, 0xff, 0x00, 0x00, 0xf1, 0x00, 0xde, 0x00, 0x00, 0x07, 0xfb, 0x00, 0xff, 0x00, 0x03, 0x00, 0x00, 0x00, 0x00, 0x02, 0xff, 0xff, 0xe0, 0xfb, 0x00, 0xff, 0x00, 0xe3, 0x00, 0xff, 0x03, 0x00, 0x00, 0xfb, 0x00, 0xfe, 0xfd, 0x00, 0xfc, 0xff, 0x00, 0xff, 0xfd, 0xfd, 0xe6, 0x00, 0xfc, 0x00, 0x00, 0x00, 0x00, 0x00, 0xe1, 0x00, 0x00, 0x00, 0x00, 0x00, 0xff, 0xfb, 0x00, 0x00, 0x00, 0xff, 0x00, 0x00, 0x00, 0xff, 0xef, 0xfc, 0x05, 0xfb, 0xdb, 0x00, 0x00, 0x00, 0xe7, 0x00, 0x00, 0x00, 0xe3, 0x00, 0x00, 0x00, 0x00, 0xfe, 0x00, 0x00, 0x00, 0x00, 0x01, 0x01, 0x00, 0x01, 0x00, 0x01, 0x00, 0x00, 0x00, 0xf0, 0xfd, 0xfd, 0x00, 0xfc, 0xf3, 0x00, 0x00, 0x00, 0xde, 0x00, 0x00, 0x01, 0xfd, 0x00, 0xef, 0x00, 0x00, 0x00, 0xfd, 0x00, 0x01, 0x00, 0x00, 0x00, 0x00, 0x00, 0xf0, 0x00, 0x00, 0x00, 0x00, 0x00, 0xf6, 0x00, 0xdf, 0x00, 0x00, 0x00, 0x01, 0x00, 0x00, 0x00, 0x01, 0x00, 0x00, 0x01, 0x00, 0xdd, 0x00, 0xdb, 0x01, 0xf9, 0x00, 0xe1, 0x00, 0xfe, 0x00, 0x00, 0xd8, 0xff, 0x00, 0xff, 0x00, 0xff, 0x00, 0x00, 0xfe, 0xfd, 0x00, 0xfc, 0x01, 0x00, 0xf4, 0x01, 0xff, 0x01, 0x00, 0x01, 0x00, 0x00, 0xb7, 0x03, 0xfe, 0x00, 0x00, 0x01, 0x00, 0x00, 0xff, 0x01, 0x00, 0x01, 0x01, 0xff, 0x00, 0xff, 0x02, 0x00, 0x13, 0x04, 0x00, 0x11, 0x00, 0x01, 0xb8, 0x01, 0x01, 0x00, 0x9f, 0x00, 0x09, 0x00, 0x00, 0x01, 0x00, 0x00, 0x01, 0x00, 0x00, 0x04, 0x02, 0xff, 0x00, 0x05, 0x00, 0x01, 0xff, 0xfd, 0x00, 0x00, 0x00, 0x01, 0x00, 0xff, 0x00, 0x00, 0xe9, 0x00, 0x00, 0xff, 0x00, 0x01, 0xfc, 0xff, 0x00, 0x01, 0x00, 0x00, 0x00, 0x01, 0x01, 0xf9, 0x01, 0x01, 0xff, 0x01, 0x00, 0x00, 0x00, 0x01, 0x00, 0x00, 0xfe, 0x01, 0x00, 0xeb, 0x01, 0x00, 0x00, 0x00, 0xf9, 0x00, 0x00, 0x00, 0x00, 0xa4, 0x00, 0x00, 0x06, 0x05, 0x00, 0xc7, 0x01, 0x04, 0xff, 0xff, 0x01, 0x00, 0x00, 0x2e, 0x01, 0xff, 0x01, 0x00, 0x04, 0x00, 0x00, 0x00, 0xf1, 0xfe, 0x03, 0x00, 0xff, 0x00, 0x00, 0xff, 0x00, 0x00, 0x01, 0x01, 0x00, 0x00, 0xf0, 0xf9, 0x00, 0x00, 0x00, 0x00, 0x00, 0x01, 0x00, 0x00, 0x00, 0x01, 0xdd, 0xff, 0x0d, 0x01, 0x0d, 0xf8, 0xf2, 0x00, 0x00, 0xff, 0xf1, 0xff, 0x02, 0x00, 0x06, 0x00, 0x00, 0xff, 0x00, 0xee, 0xef, 0x00, 0x00, 0xfe, 0x00, 0xff, 0x00, 0xfb, 0x01, 0x00, 0x00, 0xd9, 0xff, 0x00, 0x00, 0x01, 0xe2, 0x00, 0x00, 0x00, 0x03, 0x00, 0x00, 0x00, 0xff, 0x00, 0x0b, 0x00, 0x00, 0x01, 0x00, 0x00, 0x00, 0xf5, 0x00, 0x03, 0x00, 0x00, 0x0a, 0x00, 0x00, 0x00, 0xf1, 0x00, 0x00, 0x00, 0x12, 0x00, 0x00, 0x02, 0x01, 0x00, 0x00, 0x00, 0x09, 0x00, 0x00, 0x00, 0x00, 0xfe, 0x00, 0x01, 0x03, 0x13, 0x00, 0xff, 0x00, 0x01, 0x00, 0xff, 0x02, 0x00, 0x02, 0x0e, 0x00, 0xff, 0x02, 0x00, 0xff, 0x00, 0x00, 0x00, 0x10, 0x01, 0x01, 0x00, 0x01, 0xfb, 0x00, 0xfc, 0xf7, 0x00, 0xeb, 0xff, 0x00, 0xff, 0xfc, 0xfb, 0x00, 0x00, 0x00, 0x00, 0x00, 0x00, 0x00, 0x00, 0x00, 0x00, 0xe6, 0x00, 0xc1, 0x03, 0x13, 0x08, 0xfa, 0x00, 0xf0, 0x00, 0xfd, 0x00, 0xe4, 0x00, 0xf1, 0x00, 0xfa, 0x00, 0x01, 0xfd, 0xfc, 0x00, 0xff, 0xff, 0x00, 0x00, 0x00, 0x0b, 0x00, 0x00, 0x00, 0xd2, 0x00, 0x00, 0x00, 0x01, 0xe3, 0x00, 0x00, 0x00, 0x02, 0x00, 0x00, 0x00, 0x01, 0x00, 0x0d, 0x00, 0x00, 0x00, 0x00, 0x00, 0x00, 0xfd, 0x01, 0xd1, 0x00, 0x00, 0x0c, 0x00, 0x00, 0x00, 0xfb, 0x00, 0x07, 0xff, 0x06, 0x00, 0x00, 0xf7, 0x03, 0x00, 0x00, 0x00, 0xdb, 0xff, 0x00, 0xff, 0x00, 0xe6, 0x00, 0x00, 0xf1, 0x06, 0x00, 0xf3, 0x00, 0xef, 0x00, 0x00, 0x00, 0x00, 0x00, 0xca, 0x00, 0xff, 0x00, 0x00, 0xfa, 0x00, 0x00, 0x00, 0xf6, 0x00, 0x00, 0xfa, 0x01, 0x00, 0xff, 0x00, 0x01, 0xff, 0x07, 0xff, 0x00, 0x03, 0x00, 0x00, 0xff, 0x01, 0x00, 0x00, 0x01, 0xfe, 0xfe, 0x00, 0xff, 0xff, 0xf4, 0x00, 0xfc, 0xf5, 0xf3, 0xfc, 0x02, 0xff, 0xf5, 0xff, 0x02, 0x00, 0xf9, 0x00, 0xfa, 0xfe, 0x01, 0xff, 0x02, 0x01, 0x01, 0x01, 0x02, 0x00, 0x00, 0x03, 0xff, 0x02, 0xff, 0x02, 0xff, 0xf8, 0x00, 0x00, 0x00, 0xff, 0xfc, 0x00, 0x00, 0x01, 0x04, 0xff, 0xff, 0x02, 0xff, 0x00, 0x01, 0x00, 0x00, 0xff, 0x01, 0xfe, 0xfc, 0x02, 0xff, 0x19, 0x00, 0xfc, 0x02, 0xfe, 0xff, 0xff, 0x02, 0x00, 0x06, 0x01, 0x00, 0xfb, 0x00, 0xfb, 0x04, 0xff, 0x00, 0x00, 0x1f, 0x02, 0xfd, 0x02, 0xff, 0xfc, 0x00, 0xfe, 0xff, 0x01, 0xff, 0x04, 0x00, 0x00, 0xfe, 0xfc, 0xfe, 0x00, 0x00, 0xef, 0x01, 0xff, 0xfa, 0xfd, 0xf8, 0xfe, 0x01, 0x00, 0x06, 0x00, 0x01, 0xf6, 0x01, 0x00, 0x00, 0x00, 0x00, 0x00, 0xff, 0x00, 0x00, 0xff, 0x00, 0x00, 0x00, 0x00, 0x00, 0x00, 0x00, 0xff, 0xf5, 0x00, 0x00, 0x00, 0x01, 0x01, 0xf4, 0x02, 0xc9, 0x00, 0x00, 0xff, 0x01, 0x00, 0x00, 0x00, 0x01, 0x00, 0xc9, 0x00, 0x00, 0xff, 0x00, 0x00, 0x00, 0x00, 0x00, 0x01, 0x00, 0x00, 0x00, 0x03, 0x00, 0x00, 0x01, 0x01, 0x00, 0x00, 0x00, 0x00, 0x01, 0x00, 0x00, 0x00, 0x04, 0x00, 0x00, 0x02, 0x00, 0x00, 0xd8, 0x01, 0x00, 0xf6, 0x00, 0x00, 0x01, 0x00, 0x01, 0x04, 0x00, 0xfa, 0xd4, 0xfa, 0xff, 0x00, 0x00, 0x00, 0x03, 0x00, 0xd6, 0xf8, 0x00, 0xfb, 0x02, 0x00, 0x01, 0x00, 0xfd, 0x00, 0xfb, 0x00, 0x00, 0x02, 0x00, 0x01, 0xca, 0xf6, 0x00, 0x03, 0x00, 0xcd, 0xff, 0x00, 0x01, 0x00, 0x00, 0xfe, 0x00, 0x00, 0xff, 0xfd, 0x00, 0xff, 0x00, 0x00, 0xff, 0xed, 0x00, 0x00, 0xff, 0x00, 0x00, 0x02, 0x00, 0x00, 0x01, 0x00, 0x00, 0xff, 0xf4, 0xfa, 0x00, 0x01, 0x00, 0x00, 0x00, 0xff, 0x00, 0x00, 0x00, 0x01, 0x08, 0xee, 0xf9, 0x00, 0x08, 0xf9, 0xf7, 0x00, 0x02, 0x00, 0xf8, 0xff, 0x02, 0x00, 0xfd, 0x00, 0x00, 0xff, 0xff, 0xf2, 0xf4, 0x00, 0x00, 0xfe, 0x00, 0x00, 0x00, 0xf1, 0x00, 0x01, 0x00, 0x0d, 0xed, 0x00, 0x00, 0xed, 0x0a, 0x00, 0x00, 0x00, 0xfe, 0x00, 0x00, 0x02, 0xf0, 0x00, 0x10, 0x00, 0x00, 0x00, 0x00, 0x00, 0x01, 0xf6, 0x01, 0x02, 0x00, 0x00, 0x0d, 0x00, 0xff, 0x00, 0xf5, 0x00, 0x09, 0xff, 0x05, 0x00, 0x00, 0x08, 0x04, 0x00, 0x00, 0x00, 0x02, 0xfe, 0x00, 0xff, 0x00, 0x03, 0x00, 0xff, 0x05, 0x0f, 0x00, 0x01, 0x00, 0x02, 0x00, 0x00, 0xfd, 0x00, 0x00, 0xff, 0x00, 0x01, 0xfe, 0x00, 0x01, 0xfe, 0x01, 0xef, 0xff, 0x03, 0x04, 0x00, 0x04, 0xff, 0x03, 0xfc, 0x00, 0x00, 0x10, 0xfe, 0x01, 0xff, 0x00, 0x01, 0x01, 0x01, 0x01, 0x01, 0x00, 0xff, 0x01, 0xff, 0x00, 0x02, 0xfb, 0x02, 0x93, 0x02, 0x02, 0xf4, 0x01, 0x00, 0x0e, 0xfe, 0x01, 0xfe, 0x09, 0x00, 0xfb, 0x01, 0x00, 0x01, 0x02, 0x01, 0x01, 0xff, 0x00, 0xf9, 0xff, 0x01, 0x01, 0xf8, 0x01, 0x01, 0x00, 0x07, 0x03, 0x00, 0x00, 0x01, 0x01, 0x01, 0x01, 0x00, 0x12, 0x00, 0x00, 0x00, 0x02, 0x00, 0x01, 0x02, 0x00, 0x00, 0x01, 0xff, 0xfd, 0x01, 0x01, 0xfc, 0xff, 0x00, 0x05, 0x00, 0xff, 0x00, 0x01, 0xff, 0x03, 0x00, 0x02, 0x00, 0x00, 0xfe, 0x05, 0x00, 0xff, 0x00, 0x09, 0x00, 0xff, 0x00, 0x01, 0x14, 0x00, 0x0a, 0x06, 0x02, 0x00, 0x12, 0x00, 0xfd, 0xff, 0x02, 0x10, 0x00, 0x00, 0xa2, 0x00, 0x01, 0x01, 0x00, 0xfb, 0x05, 0x00, 0x04, 0x10, 0xff, 0xfe, 0x00, 0xf9, 0x00, 0x00, 0xff, 0x00, 0x00, 0x02, 0x01, 0x00, 0xff, 0xf5, 0xf8, 0xff, 0x00, 0x00, 0x00, 0x00, 0x00, 0x00, 0x00, 0x00, 0x01, 0x04, 0xfe, 0xf5, 0x01, 0x10, 0xfd, 0xf7, 0x00, 0x02, 0x00, 0xf8, 0x00, 0x00, 0x00, 0x06, 0x00, 0x00, 0x00, 0x00, 0xf4, 0xf7, 0xff, 0xff, 0x04, 0x00, 0xff, 0x00, 0x02, 0x00, 0xfa, 0x00, 0x09, 0x00, 0x00, 0x00, 0x01, 0x0a, 0x00, 0x00, 0xfa, 0x00, 0x00, 0x00, 0x01, 0xfe, 0x00, 0x0c, 0x00, 0x00, 0x00, 0x00, 0x00, 0x01, 0xf7, 0xff, 0xc8, 0x00, 0x00, 0x09, 0x00, 0x00, 0x00, 0xf6, 0x00, 0x08, 0xff, 0x0e, 0x00, 0x00, 0xf5, 0x0b, 0x00, 0x00, 0x00, 0xce, 0xff, 0x00, 0xff, 0x00, 0x00, 0x00, 0x01, 0x03, 0x09, 0x00, 0x03, 0x00, 0x0e, 0x00, 0x00, 0xff, 0x00, 0x00, 0x0a, 0xfc, 0xff, 0x01, 0x00, 0xff, 0x01, 0xf9, 0xfe, 0xec, 0xfd, 0x01, 0x01, 0x03, 0x00, 0xff, 0xfd, 0x00, 0x00, 0x06, 0x00, 0x00, 0xff, 0x00, 0x00, 0x00, 0xfb, 0x00, 0x00, 0x00, 0x00, 0x00, 0x00, 0x00, 0x00, 0xea, 0xfb, 0xe7, 0x02, 0xde, 0xec, 0x00, 0x00, 0xfd, 0x00, 0x01, 0xff, 0x04, 0x00, 0x04, 0x01, 0x00, 0xfb, 0xff, 0x00, 0x00, 0x00, 0x00, 0xf9, 0x01, 0xfb, 0x00, 0xfc, 0x00, 0x00, 0x00, 0xe1, 0xfb, 0xfb, 0x00, 0xfb, 0xe5, 0x00, 0x00, 0x00, 0xfd, 0x00, 0x00, 0x00, 0xfc, 0x00, 0xe2, 0x01, 0x00, 0x00, 0xfc, 0x00, 0x00, 0x00, 0x00, 0xf9, 0x00, 0x00, 0xe4, 0x00, 0x00, 0x00, 0x00, 0x00, 0xff, 0x01, 0xe5, 0x00, 0x00, 0xff, 0x03, 0x00, 0x01, 0xff, 0xf6, 0x00, 0x00, 0x00, 0x00, 0xfd, 0x00, 0x01, 0xfe, 0x05, 0x00, 0x08, 0x00, 0xfd, 0x00, 0x00, 0x02, 0xfe, 0x00, 0xe0, 0x00, 0x01, 0xff, 0x00, 0x01, 0xff, 0x00, 0xfc, 0xd1, 0xf6, 0xff, 0x00, 0xff, 0xfe, 0xff, 0x00, 0xfe, 0x00, 0xff, 0x00, 0x00, 0x01, 0xfc, 0xff, 0x01, 0x00, 0x01, 0x00, 0x00, 0x00, 0x00, 0x01, 0x00, 0xff, 0xf8, 0xf5, 0x0d, 0x01, 0xe0, 0xf8, 0xfe, 0x00, 0xff, 0x00, 0xfc, 0x01, 0x02, 0xff, 0xfa, 0x00, 0xff, 0xff, 0x01, 0xfa, 0xfc, 0x00, 0x00, 0x00, 0x00, 0x01, 0x00, 0xe7, 0x00, 0xff, 0x00, 0xfa, 0xf8, 0xfd, 0x00, 0xf5, 0xf2, 0x00, 0x00, 0xff, 0x00, 0x01, 0x00, 0xff, 0xf7, 0x00, 0xf0, 0x00, 0x00, 0xff, 0xfe, 0x00, 0x01, 0xfc, 0x02, 0x02, 0x00, 0x00, 0xe3, 0x00, 0x01, 0x00, 0xfb, 0x00, 0xf9, 0xff, 0xf3, 0x00, 0x00, 0x04, 0xeb, 0x00, 0x00, 0x01, 0x03, 0xff, 0x00, 0x00, 0x00, 0xff, 0x00, 0xfd, 0x06, 0xbb, 0x00, 0x05, 0x00, 0xff, 0x00, 0x00, 0xfe, 0x00, 0x00, 0xfb, 0xff, 0x00, 0x00, 0x00, 0x01, 0x01, 0xfe, 0xf9, 0xfb, 0x01, 0xeb, 0x00, 0xfa, 0xff, 0x00, 0x00, 0xff, 0x00, 0xe3, 0xff, 0x00, 0x00, 0x00, 0xfe, 0xff, 0x01, 0x01, 0x00, 0x00, 0x00, 0x00, 0x00, 0x00, 0xfd, 0x06, 0xfc, 0x05, 0x01, 0x03, 0x06, 0xff, 0x00, 0xe9, 0xff, 0xfe, 0x00, 0xfa, 0xff, 0xcc, 0x00, 0xff, 0x01, 0x00, 0xfd, 0xfd, 0x00, 0x00, 0x03, 0xff, 0xff, 0x00, 0x04, 0x00, 0xff, 0xff, 0x13, 0xfb, 0x01, 0x00, 0xfe, 0xff, 0x00, 0x00, 0xfe, 0xe0, 0x00, 0x00, 0x00, 0xfc, 0xff, 0xf3, 0x00, 0x00, 0x00, 0x01, 0x00, 0xff, 0x00, 0xfe, 0xfe, 0x00, 0x00, 0x02, 0x00, 0x01, 0x00, 0xff, 0x00, 0x01, 0x00, 0x03, 0x00, 0x00, 0x00, 0xff, 0x00, 0x00, 0xff, 0x03, 0x00, 0x00, 0x00, 0x00, 0xe5, 0x00, 0xdb, 0xe8, 0xfc, 0x00, 0xe0, 0x00, 0xe8, 0x00, 0xff, 0xd8, 0x00, 0x00, 0x05, 0xfe, 0xfe, 0x01, 0x00, 0xfb, 0xfd, 0xfe, 0xfd, 0xd6, 0xe5, 0xff, 0xff, 0x04, 0x00, 0x00, 0x00, 0x00, 0x01, 0x00, 0x00, 0x5a, 0xc1, 0x4a, 0x3f, 0x73, 0x79, 0xe3, 0xbf, 0x1d, 0x67, 0x8f, 0x3f, 0xa8, 0xf6, 0xe3, 0x3f, 0xb6, 0x92, 0xf2, 0x3f, 0x02, 0x51, 0xac, 0x3f, 0x71, 0xb2, 0xf7, 0x3e, 0x5c, 0x82, 0x0f, 0x40, 0xbe, 0x06, 0x14, 0xc0, 0xf2, 0x4c, 0xad, 0x3f, 0xbb, 0x44, 0x6b, 0x3f, 0x34, 0xc0, 0xb4, 0x3f, 0xda, 0xbb, 0xe6, 0x3f, 0xa0, 0x5d, 0x50, 0x3f, 0xc2, 0x13, 0xd9, 0x3f, 0x51, 0x2c, 0xd1, 0x3f, 0x95, 0x45, 0xbd, 0x3f, 0xb0, 0x6d, 0x24, 0x40, 0x01, 0xe5, 0xd6, 0x3f, 0xee, 0x55, 0xc3, 0x3f, 0xdf, 0xfb, 0xe6, 0x3f, 0x51, 0x0b, 0x9b, 0x3f, 0x51, 0x00, 0xa5, 0x3f, 0xcb, 0x37, 0xd9, 0x3d, 0xc5, 0xd6, 0xda, 0x3f, 0x8a, 0x8b, 0x71, 0x3f, 0x9a, 0xb8, 0x00, 0x40, 0xac, 0x0a, 0xfd, 0x3f, 0x6e, 0x7c, 0x4c, 0x3f, 0xa0, 0x80, 0x54, 0x3f, 0x1c, 0x6e, 0x99, 0x3f, 0xe8, 0x52, 0x04, 0x3e, 0x52, 0x8e, 0x07, 0x40, 0x43, 0x46, 0x9f, 0x3f, 0x44, 0xcd, 0x42, 0x3f, 0x8f, 0x00, 0x78, 0x3f, 0xf7, 0x74, 0x2b, 0x3f, 0x84, 0xc2, 0x39, 0xc0, 0x1b, 0x26, 0x0d, 0x40, 0xc7, 0x22, 0xb2, 0xbc, 0x9a, 0xd4, 0x03, 0x3f, 0x81, 0xaa, 0x82, 0x3f, 0xc2, 0xb5, 0xd3, 0x3f, 0x2c, 0xab, 0x86, 0x3e, 0x4d, 0xf2, 0x84, 0x3f, 0xf0, 0x4d, 0x79, 0x3f, 0x72, 0x32, 0xa3, 0x3f, 0xce, 0x2e, 0xd4, 0x3f, 0x83, 0xa9, 0x1b, 0xbf, 0xe5, 0xea, 0x6d, 0x3f, 0xd6, 0xf1, 0xcc, 0x3f, 0x6c, 0xb1, 0xcb, 0x3f, 0x08, 0xa4, 0xa1, 0x3f, 0x93, 0x82, 0x07, 0x3f, 0xe1, 0xd3, 0xc2, 0x3f, 0x7c, 0x67, 0xc8, 0x3f, 0xb5, 0x10, 0xb0, 0x3f, 0xaf, 0x77, 0xa6, 0x3f, 0x99, 0x45, 0x94, 0x3f, 0x13, 0x93, 0x63, 0x3e, 0xe3, 0xdc, 0xc8, 0x3f, 0xb3, 0xd8, 0xb0, 0x3f, 0x97, 0x7f, 0xb5, 0xbe, 0xd3, 0xe3, 0xbe, 0x3f, 0xe2, 0xe6, 0xff, 0xff, 0x04, 0x00, 0x00, 0x00, 0x80, 0x00, 0x00, 0x00, 0x76, 0x70, 0x1e, 0x3f, 0x2c, 0xbb, 0x43, 0xbd, 0xad, 0xfa, 0x00, 0xbe, 0x54, 0xfc, 0x2b, 0x3f, 0x3d, 0xc0, 0x9f, 0x3e, 0xbd, 0x85, 0x0a, 0x3f, 0x3d, 0xd8, 0x51, 0x3f, 0x78, 0x88, 0x91, 0x3f, 0x2d, 0x7c, 0x3f, 0xbe, 0x09, 0x55, 0xc6, 0x3f, 0xf4, 0x84, 0xb8, 0xbe, 0xe9, 0x64, 0x3b, 0x3e, 0x4f, 0x92, 0x27, 0x3f, 0x63, 0xa3, 0xb8, 0x3f, 0x33, 0xa0, 0x91, 0x3f, 0xba, 0x41, 0x0f, 0xbf, 0xc0, 0x75, 0x6e, 0x3e, 0x18, 0xfb, 0xb2, 0x3e, 0x53, 0x1c, 0x3b, 0x3f, 0x12, 0x35, 0x20, 0x3e, 0xac, 0x20, 0xc7, 0xbe, 0x6c, 0x39, 0xe1, 0x3e, 0xf1, 0xfa, 0xe9, 0x3e, 0x38, 0x90, 0xba, 0x3f, 0x9d, 0x31, 0xfc, 0x3f, 0x1e, 0x0b, 0x78, 0x3f, 0x92, 0x0a, 0x9b, 0x3f, 0x23, 0xd1, 0xf8, 0x3e, 0x1e, 0x32, 0xcf, 0x3f, 0x24, 0xfc, 0x13, 0xbf, 0x2c, 0xb6, 0xb8, 0x3f, 0xe2, 0x06, 0x23, 0x3f, 0x6e, 0xe7, 0xff, 0xff, 0x04, 0x00, 0x00, 0x00, 0x00, 0x02, 0x00, 0x00, 0x1f, 0x65, 0xb3, 0xbe, 0x9d, 0xc2, 0xad, 0xbe, 0x8d, 0x77, 0xad, 0xbe, 0xbe, 0xb5, 0x54, 0xbe, 0x32, 0x52, 0xb5, 0xbe, 0xf3, 0x03, 0x1e, 0xbe, 0x10, 0x6e, 0xa0, 0xbc, 0xf8, 0x91, 0x47, 0xbe, 0xf1, 0xf2, 0x33, 0xbe, 0xc9, 0x2d, 0xb8, 0x3d, 0xf0, 0x37, 0xdb, 0xbe, 0x89, 0x3a, 0x08, 0xbe, 0xa1, 0x91, 0x10, 0x3d, 0xf6, 0x7d, 0x81, 0xbe, 0xe2, 0x80, 0x94, 0xbe, 0x18, 0xf9, 0x78, 0xbe, 0xcf, 0x6f, 0x86, 0xbe, 0x35, 0x76, 0x96, 0xbe, 0xb7, 0x51, 0x38, 0xbc, 0x39, 0xe4, 0x8f, 0xbd, 0x14, 0x5c, 0x9e, 0xbb, 0x20, 0xa0, 0x8f, 0xbd, 0x41, 0x2c, 0x68, 0xbe, 0x7f, 0xa3, 0xb7, 0xbc, 0x96, 0x24, 0x2c, 0x3e, 0xa9, 0x41, 0xb4, 0xbe, 0x82, 0x8d, 0xd4, 0xbe, 0xde, 0xb6, 0x9c, 0xbe, 0x34, 0x22, 0x1f, 0xbf, 0xd1, 0xa9, 0x7a, 0xbe, 0x20, 0x04, 0xe7, 0xbe, 0x5e, 0xba, 0x93, 0xbe, 0x20, 0x2d, 0x97, 0xbe, 0xda, 0x1a, 0x45, 0xbe, 0x6d, 0x54, 0xf5, 0xbe, 0x15, 0xae, 0xcc, 0x3c, 0x5c, 0x9f, 0x86, 0xbe, 0xf0, 0x7f, 0x24, 0xbe, 0x64, 0x3c, 0xe1, 0xbe, 0x90, 0x21, 0x0d, 0x3e, 0x22, 0x53, 0xf4, 0xbe, 0xef, 0x4f, 0x8d, 0x3d, 0x15, 0xc2, 0x2f, 0xbe, 0x6c, 0x8b, 0x87, 0xbe, 0xb7, 0xdf, 0x6d, 0xbd, 0xee, 0x62, 0x86, 0xbe, 0xf0, 0x03, 0x9f, 0xbe, 0x41, 0xfc, 0x53, 0x3d, 0x69, 0xe2, 0x52, 0xbe, 0xfb, 0x1d, 0x97, 0xbe, 0x11, 0x0e, 0x4d, 0xbe, 0xe1, 0x66, 0xb5, 0xbe, 0x37, 0xf8, 0x25, 0xbd, 0x22, 0x56, 0xa4, 0xbe, 0x8b, 0xae, 0xaf, 0x3c, 0x44, 0xc5, 0x66, 0xbc, 0x0a, 0xd0, 0x8c, 0xbe, 0x19, 0xf6, 0xd5, 0xbe, 0x12, 0x93, 0x9f, 0xbe, 0xab, 0xf0, 0xad, 0xbd, 0x62, 0x5f, 0x9a, 0x3d, 0x7b, 0xd2, 0x8f, 0xbe, 0x88, 0x8b, 0xeb, 0xbe, 0x69, 0xd6, 0xe8, 0x3c, 0x0d, 0xe1, 0x8b, 0xbd, 0x92, 0x00, 0x45, 0xbc, 0x60, 0xe3, 0x99, 0xbe, 0xb0, 0xda, 0xf4, 0x3d, 0x3b, 0x76, 0x3f, 0x3e, 0x9c, 0x81, 0x6c, 0xbe, 0x05, 0x54, 0xc1, 0xbe, 0x41, 0xc6, 0xe8, 0x3d, 0xa5, 0xc0, 0xe8, 0xbe, 0x38, 0x92, 0x11, 0xbe, 0x41, 0x12, 0x95, 0x3d, 0xfa, 0xf8, 0x59, 0xbe, 0xff, 0x8f, 0x9b, 0xbc, 0x0c, 0xac, 0x4f, 0xbd, 0x70, 0x78, 0x6d, 0xbe, 0xb4, 0x9a, 0x8a, 0xbe, 0x06, 0x1b, 0x3a, 0xbe, 0xe9, 0xcc, 0xe0, 0xbe, 0x60, 0xd5, 0xf5, 0x3d, 0x42, 0xf7, 0x62, 0xbe, 0xf9, 0x7d, 0xee, 0xbe, 0x9e, 0xb3, 0x84, 0xbe, 0xd9, 0x5a, 0x86, 0xbd, 0xbf, 0xda, 0x85, 0x3e, 0xcc, 0x4b, 0xa0, 0xbe, 0x3e, 0x9a, 0x20, 0x3e, 0xfe, 0xa6, 0xb3, 0xbe, 0xbc, 0x07, 0x0f, 0xbe, 0x2e, 0x66, 0xbd, 0xbe, 0xad, 0xb9, 0x75, 0xbe, 0xb6, 0xc0, 0x0f, 0x3e, 0x8e, 0x22, 0xb4, 0xbe, 0x77, 0x52, 0xe7, 0xbe, 0xee, 0x68, 0x11, 0x3d, 0x1f, 0x8b, 0xfb, 0xbd, 0xac, 0x8e, 0x2a, 0xbe, 0x71, 0x77, 0xee, 0xbe, 0xbd, 0x27, 0x8c, 0xbe, 0x8d, 0x74, 0x75, 0xbe, 0x62, 0x09, 0x67, 0xbe, 0xe6, 0xcf, 0xc8, 0xbd, 0x1a, 0xc9, 0xee, 0xbe, 0xc0, 0x10, 0x5e, 0x3e, 0x3c, 0x80, 0xbc, 0xbe, 0x09, 0x2e, 0xd0, 0xbe, 0x84, 0x1f, 0xe9, 0xbe, 0x3e, 0x61, 0x16, 0x3e, 0xa7, 0xe2, 0xd1, 0xbe, 0x5e, 0xb4, 0x15, 0xbe, 0x59, 0x71, 0x05, 0xbf, 0xaf, 0xd7, 0x61, 0xbd, 0x93, 0xc5, 0x1f, 0xbe, 0x13, 0xa2, 0xa6, 0xbe, 0xe9, 0x75, 0x95, 0x3d, 0x49, 0x84, 0x0b, 0x3e, 0x91, 0xd7, 0x14, 0xbf, 0xa1, 0x58, 0x81, 0xbb, 0x98, 0xf9, 0xae, 0xbd, 0x74, 0xf4, 0x9d, 0xbe, 0xf7, 0x33, 0x61, 0xbe, 0x60, 0xa3, 0x7b, 0xbe, 0x22, 0x99, 0xdf, 0xbe, 0x13, 0x1b, 0x21, 0xbc, 0x73, 0x4e, 0xaf, 0xbe, 0x7a, 0xe9, 0xff, 0xff, 0x04, 0x00, 0x00, 0x00, 0x14, 0x00, 0x00, 0x00, 0x47, 0x1f, 0xc2, 0xbe, 0x67, 0xf2, 0xef, 0xbe, 0xb6, 0xdc, 0x8d, 0xbd, 0x51, 0x5a, 0x03, 0xbf, 0xc4, 0x7a, 0xcd, 0xbd, 0x9a, 0xe9, 0xff, 0xff, 0x04, 0x00, 0x00, 0x00, 0x40, 0x00, 0x00, 0x00, 0x5d, 0xa2, 0x14, 0x3f, 0xd6, 0xb5, 0x26, 0x3f, 0x38, 0x49, 0xf1, 0x3e, 0x0c, 0xae, 0x1c, 0x3f, 0x98, 0x47, 0x65, 0x3f, 0x82, 0x76, 0x0e, 0x3f, 0x7c, 0xad, 0x29, 0x3f, 0xa4, 0x17, 0x71, 0x3e, 0x12, 0x9d, 0x87, 0xbe, 0xba, 0xa8, 0x5a, 0x3f, 0xe2, 0xb3, 0x29, 0x3f, 0xbf, 0x86, 0x92, 0x3f, 0x1b, 0xc1, 0xa8, 0x3d, 0x3f, 0x5a, 0x26, 0x3e, 0x47, 0xc1, 0x03, 0x3f, 0x13, 0x30, 0xce, 0x3e, 0xe6, 0xe9, 0xff, 0xff, 0x04, 0x00, 0x00, 0x00, 0x00, 0x0e, 0x00, 0x00, 0xa3, 0xeb, 0x0c, 0x3e, 0x50, 0x6f, 0x00, 0x3c, 0xe0, 0x79, 0x08, 0xbb, 0x22, 0x3c, 0x16, 0x3e, 0xd0, 0x16, 0x6a, 0x3c, 0xd6, 0xac, 0x19, 0x3c, 0xc4, 0x34, 0xc2, 0x3a, 0xe9, 0x76, 0x2f, 0x3b, 0x1b, 0x61, 0x9a, 0x3b, 0x5d, 0x17, 0x2e, 0x3b, 0x1a, 0xb5, 0xf3, 0x3e, 0x2e, 0x16, 0x86, 0xba, 0x0d, 0xe6, 0xca, 0x3a, 0x05, 0x8d, 0x82, 0x3b, 0x1c, 0x02, 0x2f, 0xbb, 0x91, 0x9c, 0x03, 0xbb, 0xa4, 0xfb, 0x86, 0xbe, 0x64, 0x4c, 0x06, 0xbc, 0xac, 0xa1, 0x49, 0x3b, 0x6d, 0x48, 0xf4, 0xba, 0xc6, 0x64, 0x82, 0x3b, 0xd8, 0x46, 0xea, 0xbb, 0x9e, 0xe6, 0x40, 0x3b, 0x7a, 0x3d, 0x7a, 0xb8, 0xa2, 0x4e, 0x0c, 0x3d, 0x44, 0xe5, 0x1b, 0x39, 0xf0, 0xac, 0x18, 0xbf, 0x0d, 0x52, 0x59, 0x3d, 0x08, 0xd0, 0x4a, 0x3b, 0x5d, 0x29, 0x16, 0x3d, 0xcd, 0xcd, 0x8d, 0x3b, 0x46, 0xd7, 0xa3, 0x3e, 0xa4, 0x24, 0x37, 0x3d, 0x96, 0xb5, 0x32, 0xbe, 0x48, 0x6d, 0xfa, 0xbc, 0x46, 0x39, 0x4f, 0x3f, 0xbf, 0x03, 0xc4, 0xbb, 0xfb, 0x48, 0x0b, 0x3b, 0xdf, 0x3d, 0xc3, 0xbb, 0xf9, 0x76, 0x5e, 0xb9, 0x84, 0x7b, 0xc2, 0x3c, 0x62, 0xad, 0x3c, 0x3d, 0xa5, 0x2e, 0xab, 0xbd, 0xcb, 0xf4, 0x27, 0xbe, 0x7f, 0x37, 0xd3, 0x3b, 0xb1, 0xf9, 0x54, 0xbc, 0x54, 0x40, 0xc9, 0x3e, 0x31, 0x2e, 0x96, 0x3d, 0x48, 0xd9, 0x3d, 0x3e, 0xdc, 0x9e, 0xbb, 0x3e, 0xeb, 0xd0, 0xb9, 0x3c, 0x46, 0x0b, 0x74, 0x3c, 0xba, 0x51, 0x4b, 0xbd, 0x5d, 0xb2, 0xa8, 0xbc, 0xd5, 0xb0, 0xa8, 0xbd, 0xd4, 0x97, 0x13, 0x3d, 0x22, 0xad, 0x4b, 0x3f, 0xc0, 0x39, 0x5d, 0xbb, 0xe0, 0x45, 0xc7, 0xba, 0x4f, 0x72, 0x21, 0x3a, 0xa7, 0x21, 0x87, 0x3a, 0x6c, 0x5c, 0xa1, 0xbb, 0xd5, 0x4e, 0xc4, 0x3b, 0x25, 0x94, 0x9f, 0xbc, 0x33, 0x32, 0x2c, 0x3d, 0xa8, 0x52, 0x21, 0xbc, 0x1e, 0x3f, 0x8a, 0xbe, 0x07, 0xc8, 0xde, 0x3c, 0xab, 0x97, 0x9a, 0xbe, 0x92, 0x5c, 0xc3, 0xbc, 0x21, 0x56, 0xa6, 0xb9, 0x46, 0x72, 0x7d, 0x3a, 0xea, 0x81, 0x88, 0xbe, 0x03, 0x37, 0x3f, 0xbb, 0x95, 0x41, 0x03, 0x3b, 0xd8, 0x59, 0x9e, 0x3b, 0xd4, 0x51, 0x93, 0x3b, 0x54, 0x4c, 0xa4, 0xbe, 0xb5, 0xf5, 0x2b, 0xbc, 0xc4, 0xab, 0x5e, 0x3c, 0x52, 0xef, 0xaf, 0x3d, 0x22, 0x7f, 0xb7, 0x3b, 0x38, 0x2b, 0x47, 0x3d, 0xf2, 0x48, 0x2a, 0xbe, 0xbd, 0x6b, 0x52, 0xbe, 0x2c, 0x4b, 0xd2, 0x3c, 0x07, 0xcb, 0xd8, 0x3b, 0x6f, 0xd9, 0x29, 0x3c, 0x94, 0xd5, 0x09, 0x3f, 0x1b, 0x99, 0x2c, 0xbd, 0x26, 0x28, 0x82, 0xbd, 0x17, 0x7f, 0x09, 0x3e, 0x3e, 0x27, 0xcd, 0xbd, 0x94, 0xda, 0x8a, 0x3c, 0xfb, 0xab, 0xbf, 0x3e, 0xd9, 0xbc, 0x5d, 0xbb, 0xfc, 0xad, 0x89, 0x3d, 0x98, 0x63, 0xdb, 0xbd, 0xa2, 0x29, 0x48, 0xba, 0x82, 0xfb, 0xc2, 0xbb, 0xde, 0x31, 0x43, 0xba, 0x14, 0xbe, 0x36, 0xbb, 0x22, 0xdd, 0xd6, 0x3a, 0x28, 0x0b, 0x0d, 0x3f, 0xa9, 0xc8, 0xa0, 0xbb, 0x6a, 0x7c, 0xbf, 0x3a, 0x96, 0x8d, 0xb1, 0xbc, 0x0e, 0x4b, 0x64, 0x3b, 0x4f, 0x26, 0x29, 0xbc, 0x7b, 0x0e, 0xa7, 0xbb, 0x72, 0x61, 0xf9, 0x3e, 0xe3, 0xe8, 0x01, 0xbc, 0xe7, 0xe3, 0x87, 0x3d, 0x70, 0x89, 0x21, 0x3d, 0x71, 0x9e, 0x25, 0xbd, 0xc9, 0xcb, 0x22, 0xbe, 0x54, 0xd2, 0x73, 0x3e, 0x9c, 0xd5, 0x62, 0xbe, 0x60, 0xd6, 0x02, 0x3e, 0x74, 0xf4, 0x8d, 0x3a, 0x1f, 0x6f, 0xbd, 0xbe, 0x86, 0x3d, 0x11, 0x3c, 0x7d, 0x63, 0xc9, 0xbb, 0xc6, 0x6b, 0x83, 0xbe, 0xc0, 0x1f, 0x22, 0xbb, 0x37, 0x08, 0x22, 0x3b, 0x54, 0x4c, 0x38, 0xbe, 0x30, 0x23, 0xa5, 0x3d, 0xcf, 0x5c, 0x0b, 0x3c, 0xc2, 0xae, 0xb5, 0x3b, 0x51, 0xe8, 0xd7, 0x3e, 0xc3, 0xd5, 0xa5, 0xbd, 0x8c, 0x58, 0x51, 0xbe, 0xdf, 0x1b, 0x2b, 0xbc, 0xe8, 0x06, 0xd7, 0xb9, 0xa9, 0x62, 0xd4, 0xbb, 0xac, 0x5d, 0x6f, 0xbf, 0xa0, 0x84, 0xab, 0x3d, 0xb3, 0xcf, 0x99, 0x3c, 0xb2, 0x6a, 0x1e, 0x3c, 0x80, 0xca, 0x23, 0x3e, 0x13, 0x8d, 0x5a, 0xbd, 0xa6, 0xa0, 0x6f, 0xbd, 0x28, 0xf0, 0xf5, 0x3d, 0xc9, 0x21, 0x95, 0x3e, 0x19, 0x14, 0x7a, 0x3e, 0xb9, 0xa4, 0x8a, 0xbd, 0x08, 0xe3, 0xc7, 0x3d, 0xa7, 0xa6, 0x92, 0xbb, 0xe3, 0xd3, 0x8a, 0xbc, 0xeb, 0x38, 0xf0, 0xbe, 0xec, 0x14, 0x3e, 0x3c, 0xac, 0x0b, 0xdc, 0x3c, 0x79, 0xd1, 0x3e, 0xbe, 0x5b, 0xb6, 0xd6, 0xbb, 0x20, 0x07, 0x6b, 0x3b, 0xc7, 0x10, 0x28, 0x3a, 0x17, 0x19, 0x01, 0x3d, 0x47, 0x0d, 0x9f, 0x38, 0xa9, 0x01, 0x28, 0xbf, 0xce, 0xac, 0x36, 0x3d, 0x48, 0xd3, 0xa8, 0x3c, 0x09, 0xe7, 0x61, 0x3d, 0x3d, 0x04, 0x13, 0xbd, 0xb0, 0x0b, 0x24, 0x3e, 0xc2, 0x16, 0xb7, 0x3e, 0x8a, 0x3f, 0x33, 0x3e, 0xfe, 0x49, 0xc1, 0xbc, 0x9a, 0x22, 0x67, 0xbe, 0x4b, 0x4b, 0x14, 0x3e, 0xe1, 0x78, 0xc2, 0x3c, 0x62, 0xb8, 0x92, 0xbe, 0x1f, 0xbf, 0xba, 0x3c, 0x54, 0x24, 0x06, 0x3d, 0xe2, 0x65, 0x7f, 0x3d, 0xae, 0x35, 0x28, 0x3d, 0xa7, 0x4d, 0xa8, 0x3b, 0x50, 0x46, 0xc2, 0xbe, 0xbb, 0xba, 0x87, 0xbd, 0x81, 0x7a, 0x45, 0xbd, 0x05, 0xd8, 0x7b, 0xbd, 0x9b, 0xd3, 0xad, 0xbd, 0x61, 0xf8, 0x16, 0xbb, 0x0c, 0xdf, 0x3b, 0xba, 0x04, 0x16, 0xd8, 0x3a, 0x20, 0xf3, 0xab, 0x3e, 0x10, 0xfc, 0x6c, 0xba, 0x7f, 0xeb, 0x6d, 0xb8, 0x03, 0xdf, 0x3e, 0x3a, 0x2a, 0x75, 0xaa, 0xb9, 0x93, 0xf4, 0x2d, 0x3b, 0x45, 0x82, 0x8e, 0x3b, 0xa9, 0x6d, 0xdd, 0x3e, 0x42, 0xd2, 0x85, 0x3a, 0x89, 0xcc, 0xe2, 0x3a, 0x71, 0x7d, 0x1f, 0x3b, 0xa5, 0xc6, 0x95, 0xbe, 0xca, 0xe5, 0x5f, 0x3b, 0xfc, 0x4b, 0x18, 0x3b, 0xce, 0x50, 0x79, 0x3b, 0xff, 0x02, 0x25, 0xbb, 0x65, 0xc4, 0xa7, 0xbb, 0x97, 0xf9, 0x67, 0x3a, 0xb6, 0x20, 0xa8, 0x3d, 0x9c, 0x47, 0xf6, 0xbc, 0x7f, 0x65, 0xf9, 0xbb, 0xc7, 0x02, 0x84, 0x3e, 0x1c, 0xeb, 0x73, 0xbd, 0x71, 0xad, 0x95, 0x3d, 0x82, 0xa8, 0x63, 0x3e, 0xfe, 0xc4, 0xa5, 0x3a, 0xce, 0x58, 0xa3, 0x3a, 0x8e, 0x70, 0x5f, 0x3a, 0x4e, 0xe4, 0x26, 0x3b, 0x51, 0xdf, 0x37, 0xbb, 0x7f, 0x26, 0x9d, 0x3e, 0x10, 0xda, 0x89, 0x3b, 0xab, 0x4b, 0x40, 0x3e, 0xc8, 0x1f, 0xd3, 0xba, 0x9d, 0xc2, 0x67, 0x3a, 0x32, 0x61, 0x55, 0xbc, 0xff, 0xe7, 0x05, 0xbc, 0x4f, 0x7c, 0xaa, 0xbc, 0x3f, 0xae, 0x2a, 0x3c, 0xcc, 0xf2, 0x61, 0xbb, 0xac, 0x22, 0x92, 0xbc, 0xad, 0x41, 0xe0, 0xba, 0xe3, 0xc1, 0x94, 0xbb, 0x7f, 0x4b, 0x82, 0xbb, 0x27, 0x8c, 0x0f, 0x3f, 0xc0, 0xf6, 0x42, 0xbc, 0x3c, 0x0b, 0x59, 0xbd, 0x02, 0x5c, 0x93, 0xbb, 0x92, 0x73, 0x08, 0x3c, 0x02, 0xf5, 0x11, 0x3e, 0xe0, 0xf0, 0xbb, 0x3c, 0x3a, 0x8c, 0x18, 0xbf, 0xbd, 0x97, 0x80, 0x3e, 0x67, 0xd0, 0xa0, 0x3b, 0x2b, 0xe8, 0xa4, 0xba, 0xc5, 0xb8, 0x98, 0xbe, 0x95, 0xab, 0xe8, 0xba, 0x4d, 0xac, 0x1a, 0xbb, 0xe3, 0x2c, 0x99, 0x3b, 0x2e, 0x34, 0x05, 0x3b, 0xcd, 0x72, 0xd3, 0x3d, 0xcc, 0x4c, 0x80, 0x3e, 0xe8, 0xb5, 0xd1, 0x3c, 0x71, 0x66, 0x08, 0x3e, 0xe5, 0x4c, 0x04, 0xbe, 0xa7, 0x5a, 0x8a, 0x3b, 0xfe, 0x29, 0xf5, 0xbd, 0x9d, 0x4a, 0xa3, 0xba, 0x2d, 0x68, 0x6e, 0xbc, 0xac, 0xdc, 0xdb, 0xba, 0x52, 0xae, 0xc7, 0xbb, 0x5e, 0xb2, 0x94, 0x3b, 0x0e, 0xc7, 0xfc, 0x3e, 0xf6, 0x9e, 0x6a, 0xbc, 0x8c, 0x47, 0xc3, 0xbd, 0x9a, 0x69, 0x66, 0x3d, 0x46, 0xb3, 0xfe, 0xbc, 0xfa, 0x0b, 0x23, 0xbe, 0x55, 0x7d, 0x52, 0xbe, 0xaa, 0xaf, 0x3b, 0xbe, 0xa3, 0x01, 0xb6, 0xbd, 0x07, 0x14, 0x09, 0x3b, 0x8e, 0x18, 0x82, 0xba, 0x05, 0xbc, 0x8b, 0xbe, 0x6b, 0x41, 0x56, 0x3b, 0x9e, 0x44, 0xa1, 0xba, 0x89, 0xa2, 0x8f, 0x3b, 0x3b, 0x83, 0xc7, 0x3b, 0x6f, 0x3e, 0x9e, 0x3e, 0x14, 0x28, 0xa1, 0xbb, 0x17, 0x1c, 0x4b, 0xbc, 0xe3, 0xb3, 0x2a, 0x3d, 0xdd, 0x28, 0xc2, 0xbe, 0xc7, 0x9b, 0xf4, 0x3c, 0xca, 0x74, 0x35, 0x3d, 0x1a, 0x16, 0xe6, 0x3a, 0xe5, 0xd0, 0x8b, 0xbe, 0xbb, 0x60, 0x67, 0x3b, 0xd1, 0x96, 0x0d, 0x3b, 0x8e, 0x74, 0x80, 0x3a, 0x08, 0xb8, 0x65, 0xbb, 0xc2, 0x5a, 0x25, 0xba, 0x92, 0x09, 0xc5, 0xbc, 0x8b, 0x59, 0x43, 0x3e, 0xfb, 0x47, 0xa4, 0x3d, 0x80, 0xe5, 0x2c, 0xbe, 0x26, 0x19, 0x81, 0x3e, 0x6f, 0x85, 0x3d, 0xbe, 0x46, 0xab, 0x21, 0xbd, 0xd9, 0xa3, 0x54, 0x3f, 0x7c, 0x7a, 0xce, 0xbb, 0xaf, 0x7a, 0x06, 0x3c, 0x4f, 0x5c, 0xc5, 0xbb, 0xbb, 0x1a, 0x23, 0xba, 0xf1, 0x9b, 0xad, 0xbc, 0x06, 0xe5, 0x03, 0xbc, 0x21, 0xf5, 0x20, 0xbd, 0x7b, 0xd5, 0xaa, 0xbe, 0xbf, 0x14, 0x38, 0x3a, 0xb5, 0xcb, 0xb0, 0x3d, 0xab, 0x7b, 0xcd, 0x3c, 0xe1, 0x9c, 0xc7, 0xbd, 0x2a, 0x19, 0x34, 0x3e, 0x06, 0x09, 0x36, 0x3d, 0x62, 0x41, 0x8b, 0xbd, 0xa4, 0x8c, 0x21, 0x3a, 0xf5, 0x53, 0x9a, 0x3e, 0x3a, 0xfe, 0x1b, 0x3d, 0xa5, 0xa3, 0x84, 0x3d, 0x89, 0x20, 0x7a, 0x3e, 0x06, 0x6e, 0x3b, 0x3b, 0x43, 0xb8, 0x17, 0xbc, 0x1b, 0xbe, 0xc9, 0xb9, 0x8b, 0x7a, 0x2c, 0xbc, 0x77, 0x72, 0xd5, 0xba, 0x81, 0x25, 0x00, 0x3f, 0xea, 0xcc, 0x9e, 0xbb, 0x83, 0x25, 0xcf, 0x39, 0xe9, 0x96, 0x2b, 0xbc, 0xd9, 0xf7, 0x57, 0xba, 0xba, 0xde, 0x88, 0xbb, 0xcf, 0x80, 0xee, 0xba, 0x9c, 0xa3, 0x15, 0x3f, 0xa8, 0x9e, 0x8d, 0xbb, 0x2b, 0xef, 0x1c, 0x3e, 0x95, 0x51, 0x19, 0x3d, 0xdb, 0xa5, 0x14, 0xbd, 0xf1, 0x6e, 0xce, 0x3e, 0xc2, 0x65, 0xfe, 0xbd, 0xa7, 0x49, 0x3c, 0x3e, 0x10, 0x99, 0xa7, 0xbd, 0x82, 0xa0, 0xd0, 0x3d, 0x15, 0x9f, 0x76, 0xbd, 0x1d, 0x9f, 0x5c, 0x3c, 0x2a, 0x40, 0xe6, 0x3e, 0x01, 0xd2, 0x18, 0xbd, 0xcf, 0x0c, 0x25, 0x3e, 0xca, 0x86, 0x2b, 0xbe, 0x45, 0xbf, 0xa6, 0x3e, 0x47, 0xe5, 0x7f, 0x3a, 0xae, 0x4d, 0x58, 0xba, 0x41, 0xbb, 0x4c, 0xbc, 0x4a, 0x1e, 0x4a, 0xbc, 0x50, 0x8c, 0x0a, 0xbd, 0xc3, 0x7b, 0xc1, 0xbc, 0xa3, 0xf4, 0xa6, 0xbe, 0xe6, 0xbe, 0x97, 0x3c, 0x84, 0x51, 0x8c, 0x3a, 0x67, 0xc9, 0xa6, 0x3e, 0x73, 0xde, 0x11, 0xbd, 0x89, 0x00, 0x39, 0x3d, 0xf5, 0xb7, 0x55, 0xbd, 0x30, 0xb9, 0x83, 0x3e, 0xae, 0x34, 0x4d, 0xbd, 0xd9, 0x31, 0x87, 0x3c, 0xe4, 0x3a, 0xd7, 0x3d, 0x20, 0x34, 0x2b, 0xbd, 0x2e, 0x8a, 0x35, 0x3c, 0x49, 0xc6, 0x8f, 0xbd, 0xb3, 0x49, 0xb6, 0xbc, 0x3b, 0xc1, 0xb3, 0x3a, 0xda, 0xd0, 0x28, 0xbc, 0xec, 0x61, 0x48, 0xbf, 0x82, 0xf4, 0x9e, 0x3d, 0x76, 0x5a, 0x9e, 0x3d, 0x25, 0xa8, 0x88, 0x3d, 0xe3, 0x4c, 0x40, 0x3e, 0xf4, 0x79, 0x8f, 0x3c, 0x51, 0x62, 0x5f, 0xbc, 0x1a, 0x52, 0x56, 0x3d, 0x20, 0xee, 0x71, 0xbd, 0x88, 0x57, 0x99, 0x3c, 0x5f, 0xa4, 0x81, 0x3a, 0x3c, 0x70, 0x74, 0xbb, 0x81, 0x20, 0xe1, 0xbc, 0x35, 0x8d, 0x0c, 0xbd, 0x50, 0xee, 0xff, 0xbe, 0x47, 0x03, 0x18, 0xbd, 0xcb, 0x15, 0xee, 0x3d, 0x91, 0xe6, 0x5b, 0xbe, 0x26, 0x33, 0x95, 0x3b, 0xc1, 0xac, 0x81, 0x3a, 0x62, 0x0d, 0x74, 0xba, 0x5d, 0xbc, 0x1b, 0x3f, 0x32, 0xba, 0x64, 0x3e, 0x48, 0x5e, 0x21, 0xbc, 0x93, 0x3c, 0x0e, 0xba, 0xb8, 0x6e, 0x9d, 0xbd, 0xd1, 0x96, 0x24, 0x3e, 0x77, 0x57, 0x4b, 0x3e, 0x72, 0xae, 0x71, 0xbe, 0x45, 0x21, 0x3a, 0x3c, 0x84, 0x39, 0xd9, 0xbd, 0x8d, 0xd4, 0xe9, 0x3c, 0x00, 0x53, 0x7d, 0x39, 0x95, 0x21, 0x43, 0x3b, 0xbc, 0x24, 0xf0, 0xba, 0x17, 0x37, 0xae, 0x3e, 0xd8, 0x16, 0x28, 0x3a, 0x5f, 0x88, 0xd4, 0xb9, 0x76, 0x38, 0x52, 0xba, 0xa8, 0x26, 0xb9, 0x3a, 0xa4, 0xe0, 0x52, 0xbb, 0x3a, 0x29, 0x65, 0x3b, 0x46, 0x36, 0xe3, 0x3e, 0x3e, 0x05, 0xb9, 0xb8, 0x0c, 0x83, 0xe4, 0x38, 0x14, 0xa1, 0x31, 0x3b, 0xfa, 0x8d, 0x8e, 0xbc, 0x68, 0x7c, 0x6d, 0xbf, 0xca, 0x9b, 0x8a, 0x3c, 0x40, 0x92, 0x88, 0x3c, 0xe2, 0x1b, 0xc6, 0x3c, 0x8b, 0xdd, 0x4f, 0x3c, 0x22, 0x06, 0xfd, 0x3c, 0x95, 0xc5, 0x6a, 0xbe, 0xc9, 0x07, 0xc4, 0xbd, 0xec, 0x8f, 0xbb, 0xbc, 0x8e, 0xd7, 0x89, 0xbe, 0xa6, 0x3b, 0x00, 0xbc, 0x6b, 0x63, 0x65, 0xbe, 0x17, 0x15, 0xbd, 0x3d, 0x2b, 0x63, 0xb7, 0x3a, 0xc4, 0xd3, 0xd8, 0xb9, 0x10, 0x46, 0x29, 0x3b, 0xe4, 0x48, 0xca, 0x3e, 0xe8, 0xba, 0x9f, 0xb9, 0x60, 0xd6, 0x01, 0xba, 0x1a, 0x18, 0xf8, 0xba, 0xad, 0x9f, 0x47, 0x38, 0xcf, 0x3c, 0x11, 0xba, 0x97, 0x47, 0xa8, 0x39, 0x0b, 0xe7, 0xbd, 0x3e, 0xa1, 0xe1, 0xc0, 0x3a, 0x4c, 0xd8, 0x6f, 0x38, 0x53, 0xba, 0x98, 0x3a, 0x6b, 0xeb, 0x02, 0xbe, 0xbd, 0xeb, 0x85, 0x3d, 0x48, 0xef, 0x74, 0xbc, 0x3a, 0x18, 0x95, 0xbd, 0x15, 0xf3, 0xe8, 0x3e, 0x46, 0x67, 0x9e, 0xbd, 0xa2, 0x34, 0xca, 0xbd, 0x2f, 0x5e, 0x3a, 0xbc, 0x89, 0xf5, 0x4d, 0xbb, 0xc2, 0xac, 0xb4, 0xba, 0x08, 0x19, 0x60, 0xbf, 0xce, 0x30, 0xa0, 0x3d, 0xa3, 0xe2, 0x5e, 0x3c, 0xd2, 0xe0, 0x93, 0x3b, 0xb4, 0xfb, 0x19, 0xbb, 0x1a, 0xe1, 0xae, 0x3b, 0x0f, 0xdd, 0xeb, 0xbb, 0xea, 0x76, 0x1d, 0x3f, 0x44, 0x3f, 0x65, 0x3e, 0x7c, 0xf3, 0x41, 0x3b, 0x7a, 0x80, 0xa6, 0x3b, 0x5e, 0xf9, 0x31, 0xba, 0xf2, 0x95, 0xb8, 0xba, 0xf2, 0x81, 0x71, 0xbe, 0xe1, 0x12, 0x4b, 0x3b, 0x53, 0xc0, 0x80, 0x3b, 0x56, 0xf9, 0x87, 0x3b, 0xe9, 0x34, 0x13, 0x3c, 0x45, 0x08, 0xc3, 0xbd, 0xa2, 0x9c, 0x74, 0x3d, 0x81, 0x77, 0x52, 0x3b, 0xcf, 0xe0, 0x98, 0xbe, 0x18, 0xfc, 0xe2, 0xbc, 0xac, 0xf9, 0x93, 0xbe, 0x18, 0x8c, 0x5b, 0x3d, 0xc8, 0xe8, 0x1a, 0xbe, 0xc4, 0xdc, 0x2d, 0x3e, 0xd4, 0xef, 0x74, 0xba, 0xdc, 0x7c, 0xac, 0xbe, 0xec, 0xd5, 0x09, 0x3d, 0xbf, 0x8d, 0x87, 0xbe, 0xc4, 0x52, 0xc9, 0xbd, 0xa4, 0x64, 0xb2, 0x3c, 0x9f, 0xc7, 0x60, 0xbc, 0x75, 0xd3, 0x59, 0x3c, 0x40, 0x74, 0xc8, 0x3d, 0x6e, 0x93, 0xcf, 0xbb, 0x2f, 0xe3, 0xa2, 0xbe, 0x72, 0xec, 0x75, 0xbe, 0xf8, 0x15, 0xdf, 0x3a, 0xc0, 0xf9, 0x7b, 0x3a, 0x91, 0x68, 0x4f, 0x3b, 0xb4, 0xbe, 0x06, 0x3f, 0x83, 0x78, 0x0e, 0xba, 0xb8, 0x50, 0x5b, 0x3b, 0xfd, 0x77, 0xc2, 0x3b, 0x57, 0x92, 0x97, 0xbe, 0x8b, 0x2a, 0x65, 0xbd, 0x5e, 0x92, 0xf8, 0x3c, 0x68, 0x7d, 0x04, 0x3e, 0xf3, 0xa9, 0xa0, 0xbe, 0x13, 0x1d, 0x10, 0x3e, 0xac, 0xdf, 0x8e, 0xbd, 0xa2, 0xd7, 0x47, 0xba, 0x75, 0x10, 0xfc, 0xba, 0x3d, 0x58, 0xbc, 0x39, 0x73, 0xda, 0x58, 0x3b, 0xd0, 0x0d, 0x09, 0xbb, 0x80, 0x35, 0xa5, 0x3e, 0x75, 0xb0, 0x30, 0x3c, 0x71, 0xeb, 0x27, 0x3d, 0xff, 0xe5, 0x81, 0x3b, 0x48, 0x55, 0x12, 0xbc, 0xb0, 0x5e, 0x5d, 0x3d, 0x0e, 0x5d, 0x96, 0x3e, 0x8c, 0x02, 0xa9, 0xbe, 0x89, 0xfa, 0x5d, 0x3c, 0x0a, 0x84, 0xe8, 0xbd, 0x7b, 0x0a, 0x3f, 0x3d, 0xf0, 0x36, 0x3e, 0x3b, 0xe3, 0xc9, 0x8b, 0xbe, 0x56, 0x7b, 0x63, 0x3c, 0x80, 0x75, 0x92, 0xbe, 0x2a, 0x51, 0xd7, 0x3d, 0x5f, 0x62, 0x9b, 0xb9, 0x9a, 0x85, 0xfb, 0x3a, 0x3c, 0xcb, 0x4e, 0x3b, 0x93, 0xb4, 0x08, 0x3d, 0x4a, 0x9e, 0x87, 0x3a, 0xed, 0xc2, 0x1b, 0xbf, 0xf1, 0x85, 0x60, 0x3d, 0xe8, 0xa7, 0xe6, 0xbb, 0x29, 0x38, 0x54, 0xbf, 0x10, 0x18, 0x05, 0x3c, 0xf6, 0x2d, 0x77, 0xbc, 0x4a, 0x9f, 0xde, 0x3c, 0x1e, 0x1c, 0xea, 0xbc, 0x9b, 0xcc, 0x0f, 0xbb, 0xdd, 0x4b, 0x12, 0xbe, 0x3b, 0x37, 0xb6, 0x3d, 0x5d, 0x42, 0xfe, 0xbb, 0x38, 0x41, 0x9b, 0xbd, 0x38, 0x26, 0xae, 0xbe, 0x0f, 0xdc, 0x52, 0xbb, 0x47, 0xc5, 0x59, 0x3c, 0x72, 0x32, 0x39, 0x3d, 0xd1, 0xb1, 0x16, 0x3d, 0x45, 0xd0, 0x11, 0xbc, 0x95, 0x45, 0xa3, 0x3e, 0x5f, 0x85, 0xc8, 0xbd, 0x5f, 0x33, 0x93, 0xbe, 0xe3, 0x85, 0xbe, 0x3d, 0x51, 0xb1, 0xd4, 0xba, 0xd2, 0x6a, 0x8b, 0xbc, 0x09, 0xc5, 0x23, 0xbb, 0x76, 0xf7, 0x43, 0xbc, 0x64, 0x7b, 0xa5, 0xbb, 0xdb, 0x76, 0x06, 0x3f, 0x99, 0x4d, 0xc2, 0xbb, 0x26, 0x31, 0x8d, 0xbd, 0xad, 0x79, 0xea, 0x3d, 0x38, 0x8d, 0xaf, 0x3b, 0x99, 0x29, 0xb5, 0x3e, 0x55, 0x46, 0xb2, 0x3c, 0xec, 0x5f, 0x97, 0xbd, 0xa3, 0x65, 0x80, 0x3d, 0x06, 0x58, 0x43, 0xb8, 0x2c, 0x9d, 0x2e, 0xba, 0x56, 0x0e, 0xff, 0x39, 0xdb, 0xd9, 0x81, 0x3a, 0x8e, 0x93, 0xf4, 0xba, 0x25, 0x6a, 0x91, 0xbe, 0xc0, 0x20, 0x48, 0x3a, 0x60, 0xc9, 0x8e, 0x3e, 0xcd, 0x74, 0xbb, 0x3c, 0xfb, 0x96, 0x04, 0x3d, 0x97, 0x74, 0xea, 0xbc, 0xdb, 0x2f, 0x95, 0xbe, 0x9c, 0x95, 0x80, 0xba, 0x4e, 0xdc, 0x9a, 0x3c, 0x05, 0x34, 0xab, 0xbc, 0x86, 0xe0, 0x11, 0x3b, 0x3e, 0xa3, 0x8b, 0xba, 0x19, 0x23, 0x2a, 0x3d, 0x49, 0x4b, 0x12, 0x3b, 0x26, 0x85, 0x25, 0xbf, 0xb9, 0x90, 0x85, 0x3d, 0x1e, 0x05, 0x19, 0x38, 0xed, 0x5b, 0x24, 0x3b, 0x68, 0x90, 0x8b, 0x39, 0x2a, 0x54, 0x12, 0xba, 0x76, 0xd1, 0x55, 0x3a, 0x2c, 0x29, 0xa5, 0x3e, 0x94, 0x92, 0x06, 0x3b, 0x9b, 0x09, 0x18, 0xbc, 0x9b, 0x9f, 0x65, 0x3b, 0x06, 0x80, 0xfb, 0x3b, 0x1d, 0x13, 0x1d, 0x3d, 0x1b, 0xd0, 0xfb, 0xb9, 0xe3, 0xba, 0x41, 0xbf, 0x53, 0x23, 0x78, 0x3d, 0x36, 0x3f, 0xcb, 0x3c, 0x8f, 0xfa, 0x20, 0xbe, 0x66, 0xab, 0xb3, 0xbc, 0xaf, 0x52, 0x9f, 0x3e, 0x23, 0x93, 0xa9, 0xbd, 0x74, 0x5e, 0xac, 0xbe, 0xa9, 0x71, 0x98, 0x3d, 0x21, 0xe1, 0x13, 0xbe, 0x91, 0x6c, 0xbd, 0xbb, 0x59, 0xaa, 0xbe, 0xbc, 0x6d, 0x5e, 0xdf, 0xbe, 0x93, 0x03, 0x52, 0xbd, 0x2a, 0x06, 0x46, 0xbd, 0x35, 0x76, 0x9f, 0x3d, 0x34, 0xbe, 0x6d, 0xbb, 0x4a, 0xdd, 0x4b, 0xbc, 0x8e, 0xd4, 0x86, 0xba, 0x82, 0x25, 0xf1, 0xbb, 0x5d, 0xe8, 0x6d, 0xba, 0xc4, 0xf5, 0x14, 0x3f, 0xc9, 0xf4, 0x69, 0xbc, 0xcc, 0xb8, 0x45, 0xbe, 0x6b, 0xf0, 0xcc, 0xbd, 0x43, 0xe2, 0x8f, 0xbd, 0xc2, 0x78, 0x57, 0x3e, 0xea, 0x0e, 0xae, 0xbe, 0xad, 0xa1, 0x60, 0x3c, 0xcd, 0x48, 0x53, 0x3e, 0xdd, 0xa0, 0x32, 0x3d, 0x78, 0x01, 0xe8, 0xbc, 0x04, 0x2a, 0xa6, 0xbb, 0x6d, 0x9c, 0x87, 0x3e, 0xaf, 0x8c, 0xd8, 0xbc, 0x65, 0x31, 0xa2, 0x3d, 0x76, 0x22, 0x36, 0x3d, 0x90, 0x0f, 0x21, 0x3e, 0x5b, 0xac, 0x37, 0x3c, 0xa2, 0x0a, 0x12, 0xbc, 0xb9, 0x6b, 0xd7, 0x3e, 0x56, 0x2a, 0xe5, 0xbc, 0x17, 0x64, 0x22, 0x3e, 0xb8, 0x9c, 0xaf, 0xbd, 0xef, 0xd9, 0xd9, 0x3a, 0x0f, 0x2f, 0xf8, 0xba, 0x3e, 0xbf, 0x14, 0xb8, 0xff, 0x3b, 0x49, 0x3a, 0xb5, 0xa6, 0xbf, 0xba, 0x3d, 0xef, 0x85, 0x3e, 0xe3, 0x9a, 0x86, 0x3c, 0x10, 0x08, 0x3c, 0xbc, 0x46, 0xb5, 0x4d, 0x3b, 0x8b, 0xcf, 0x3a, 0x3b, 0xe6, 0xa5, 0x15, 0x3d, 0x66, 0x33, 0x80, 0xba, 0x0e, 0xb7, 0x30, 0xbf, 0x9c, 0x23, 0x84, 0x3d, 0xa7, 0xe6, 0x9d, 0x3c, 0xa2, 0xc9, 0x84, 0x3e, 0x4d, 0x00, 0x4d, 0xbe, 0x56, 0xa8, 0xa7, 0xbd, 0x8c, 0x5c, 0x9d, 0x3e, 0x6b, 0x5c, 0x05, 0x3d, 0x14, 0xa5, 0x29, 0x3d, 0x65, 0x39, 0xd6, 0x3b, 0x49, 0x13, 0x0e, 0x3b, 0xcd, 0x35, 0x3a, 0x3b, 0xdb, 0xdc, 0x27, 0x3d, 0x37, 0xff, 0xe5, 0x3a, 0xe8, 0xc9, 0x67, 0xbe, 0x01, 0xda, 0x48, 0x3d, 0x38, 0x49, 0x57, 0x3d, 0xc5, 0xd3, 0xbd, 0xbc, 0x30, 0x80, 0x9f, 0x3c, 0x25, 0x60, 0x40, 0x3e, 0x4f, 0x47, 0x19, 0x3e, 0x4e, 0x1b, 0xfe, 0x3d, 0x7e, 0x96, 0x4b, 0x3d, 0x67, 0xbb, 0x53, 0xbd, 0x39, 0xf1, 0x48, 0x3d, 0x55, 0xd4, 0x5a, 0x3b, 0xa6, 0x1a, 0x62, 0xbe, 0x43, 0x5a, 0x4a, 0xbc, 0x33, 0xc5, 0x8e, 0xbe, 0xc2, 0x4f, 0xf5, 0x3d, 0xc1, 0x7a, 0x1b, 0x3d, 0x12, 0xbe, 0xc9, 0x3c, 0xee, 0xe2, 0x04, 0x3c, 0x96, 0x82, 0x8a, 0x3e, 0x95, 0xa1, 0x28, 0x3a, 0x0c, 0x11, 0xd1, 0xbe, 0x0f, 0x30, 0x3a, 0xbc, 0x6d, 0x21, 0x61, 0xbc, 0xcf, 0x20, 0xad, 0xbe, 0x46, 0x3c, 0x5b, 0xbd, 0x84, 0x95, 0x81, 0x3c, 0xb1, 0x88, 0x67, 0x3d, 0x87, 0x6a, 0xc8, 0x3e, 0x96, 0x92, 0x5b, 0xbc, 0x0b, 0xb9, 0xac, 0xba, 0x08, 0x37, 0x6b, 0xba, 0x6f, 0xcd, 0x22, 0xb9, 0x04, 0xd5, 0xd0, 0x3a, 0xf3, 0x95, 0x39, 0x3a, 0xc7, 0x20, 0x9a, 0xbe, 0x9d, 0x07, 0x00, 0x3a, 0x28, 0xf2, 0xa2, 0x3d, 0x8f, 0x9e, 0x3a, 0x3d, 0x76, 0xc3, 0xc1, 0xbb, 0x29, 0x86, 0xe9, 0x3e, 0x77, 0x5d, 0x22, 0x3d, 0x02, 0x2a, 0x4e, 0x3e, 0x7a, 0x0a, 0x31, 0xbd, 0x1b, 0x99, 0x8c, 0xbc, 0xfb, 0xe6, 0x33, 0x3a, 0x9e, 0xe4, 0x03, 0xb9, 0x62, 0x87, 0x69, 0x3d, 0xe8, 0x99, 0x4e, 0xb6, 0xb8, 0x33, 0x35, 0xbf, 0xdf, 0x4d, 0xaa, 0x3d, 0x11, 0x5b, 0x8f, 0x3e, 0x84, 0xdf, 0xf5, 0xba, 0xf6, 0x2f, 0x40, 0xbc, 0xae, 0x5c, 0x92, 0x3e, 0x69, 0x1f, 0xe8, 0xbc, 0x33, 0x32, 0x15, 0x3e, 0x64, 0x34, 0x35, 0xbd, 0x89, 0x60, 0xa7, 0xbd, 0x43, 0xd3, 0x0a, 0x3d, 0x18, 0x1b, 0x28, 0x3c, 0x47, 0x9e, 0x90, 0xbe, 0x6b, 0xec, 0xd7, 0x3e, 0x81, 0x84, 0x7d, 0xbc, 0x29, 0xbb, 0xa4, 0xbc, 0x51, 0x1f, 0x4e, 0x3b, 0x26, 0x46, 0x24, 0x3a, 0xe9, 0xa2, 0x92, 0xbe, 0x81, 0x39, 0x43, 0x3b, 0x8f, 0x95, 0x5b, 0x3a, 0x17, 0x8a, 0xb9, 0x3b, 0xe9, 0x31, 0x88, 0x3b, 0x9b, 0xff, 0xdc, 0xbd, 0x4e, 0x48, 0x4a, 0x3d, 0x6a, 0xdf, 0x9e, 0xbc, 0x9d, 0xaa, 0xa9, 0xbe, 0x41, 0x1b, 0x01, 0xbd, 0xc0, 0xce, 0xf3, 0xbc, 0x9d, 0x60, 0xa7, 0x3d, 0x9a, 0x0b, 0x8f, 0x3b, 0xb4, 0x2a, 0xf0, 0xb9, 0xf1, 0x87, 0x95, 0x3e, 0xc0, 0x4f, 0x74, 0xba, 0xf7, 0x85, 0x6a, 0x3b, 0xbe, 0x87, 0xb4, 0x3b, 0x8a, 0x2b, 0x5d, 0x3b, 0xe9, 0x8c, 0xeb, 0xba, 0xe7, 0xf5, 0x72, 0xbe, 0x96, 0xc5, 0x81, 0xb9, 0x13, 0xae, 0x04, 0xbb, 0x70, 0x4f, 0xa4, 0xba, 0xc5, 0x76, 0x1a, 0x3b, 0xcc, 0x33, 0x93, 0xbb, 0x0e, 0x25, 0xf2, 0x3d, 0x25, 0x54, 0xda, 0xbd, 0x16, 0xb6, 0x8f, 0x3c, 0x97, 0x45, 0xc2, 0x3d, 0xa2, 0x0e, 0xd5, 0xbc, 0xf2, 0x00, 0x71, 0x3d, 0xdb, 0x3b, 0x6c, 0x3d, 0xa9, 0xa5, 0x42, 0xbe, 0xea, 0x27, 0x7a, 0x3d, 0xb1, 0x6e, 0x4d, 0xbb, 0x5b, 0xa6, 0xc1, 0xbe, 0xe2, 0xc0, 0xe7, 0xbc, 0x49, 0x8a, 0x19, 0xbe, 0xff, 0xb0, 0x31, 0x3e, 0x29, 0x68, 0xf9, 0xba, 0xa7, 0xd1, 0xe7, 0x39, 0xd7, 0x4f, 0x83, 0xbe, 0x7c, 0x9a, 0x12, 0xba, 0xce, 0xe9, 0x01, 0x3b, 0xe4, 0xe5, 0xe2, 0x3b, 0xaf, 0xb6, 0xe2, 0x3a, 0xb4, 0x63, 0x25, 0xbe, 0x07, 0x02, 0x22, 0xbd, 0x25, 0x91, 0x10, 0xbd, 0xa3, 0x56, 0x7d, 0xbc, 0x02, 0xba, 0xbe, 0x3d, 0xa1, 0xd2, 0xb1, 0xbe, 0x94, 0x52, 0x97, 0x3e, 0x99, 0x6a, 0x73, 0xba, 0x12, 0x47, 0x9a, 0xbe, 0x8a, 0x79, 0x4a, 0x3b, 0x48, 0x62, 0xd4, 0x3a, 0x87, 0x83, 0x60, 0x3a, 0xf9, 0x30, 0xeb, 0xba, 0xca, 0x55, 0x27, 0x3a, 0xf6, 0x62, 0xb5, 0x3c, 0x70, 0x7a, 0x64, 0x3e, 0xeb, 0x03, 0x80, 0x3d, 0x20, 0xbc, 0x7a, 0xbe, 0x80, 0xd4, 0x20, 0xbd, 0x0e, 0x63, 0x85, 0x3e, 0x47, 0x57, 0xf7, 0x3d, 0xcb, 0xac, 0x01, 0xbd, 0xf6, 0x82, 0xd6, 0x3b, 0x2a, 0x11, 0xd2, 0x3a, 0x20, 0xee, 0x79, 0xbe, 0x85, 0x17, 0xb0, 0x3e, 0x49, 0x96, 0x5f, 0x3d, 0xd2, 0x05, 0x9c, 0x3c, 0x8b, 0x2b, 0x29, 0x3b, 0xe1, 0x26, 0xf2, 0x3a, 0x39, 0x85, 0x85, 0x3e, 0x31, 0xf2, 0xdc, 0x3b, 0xf2, 0x4d, 0xb8, 0xba, 0x2b, 0xed, 0x12, 0x3c, 0x96, 0x39, 0x28, 0x3c, 0x8d, 0x1c, 0x1d, 0xbd, 0x09, 0xd8, 0x46, 0xbf, 0xec, 0x80, 0xee, 0x3b, 0xfe, 0x97, 0x64, 0xbc, 0xa1, 0x26, 0xd4, 0xbb, 0xd4, 0xa1, 0x29, 0xbc, 0x0f, 0xc0, 0xe7, 0x3b, 0x6e, 0x6b, 0x8f, 0xbc, 0x15, 0x53, 0x3b, 0x3d, 0x09, 0xf9, 0xed, 0x3c, 0x88, 0xdc, 0x6b, 0xbe, 0x71, 0xee, 0x8f, 0x3d, 0x24, 0xb7, 0xeb, 0x3e, 0xb4, 0x7a, 0x12, 0xbe, 0x4e, 0x2e, 0x8e, 0xbe, 0xe2, 0xd4, 0xd7, 0xba, 0x0e, 0x12, 0x2e, 0x3b, 0x4e, 0x4d, 0x55, 0xba, 0x5f, 0x25, 0xc1, 0xba, 0x13, 0xcc, 0xf5, 0xba, 0x4b, 0x00, 0x2d, 0x3b, 0xfc, 0x95, 0x55, 0xbb, 0x22, 0x8b, 0xb2, 0x3b, 0xa7, 0x63, 0x3f, 0x3a, 0xa4, 0x5f, 0x15, 0x3f, 0x16, 0x4f, 0x5e, 0x3e, 0x82, 0xda, 0x3a, 0x3c, 0x98, 0xff, 0x85, 0x3c, 0xd5, 0xba, 0xeb, 0x3d, 0x5a, 0xb3, 0x88, 0xbc, 0xe8, 0x42, 0x91, 0xbc, 0x03, 0x0c, 0xd2, 0x3d, 0xfc, 0x58, 0x76, 0xbb, 0x58, 0x34, 0x40, 0x3e, 0x28, 0x0d, 0xba, 0x3e, 0x66, 0x9b, 0x58, 0xbe, 0x90, 0x4f, 0x74, 0xbc, 0x1d, 0xc8, 0x7d, 0xbc, 0x4a, 0xc1, 0xf2, 0xbd, 0x91, 0xec, 0x1b, 0xbd, 0xc2, 0xb3, 0x95, 0x3e, 0xb2, 0x67, 0x2a, 0xbc, 0x6f, 0x04, 0xfa, 0xba, 0xe2, 0xb8, 0xc4, 0xbb, 0x10, 0x59, 0xaa, 0xb9, 0x28, 0xc0, 0x86, 0x3d, 0x48, 0x0b, 0xdd, 0xbb, 0xaf, 0x70, 0x29, 0xbf, 0x28, 0x07, 0xd8, 0x3d, 0xee, 0x25, 0x4b, 0x3d, 0xb2, 0xf4, 0x19, 0x3b, 0xe0, 0x2c, 0x8b, 0xbb, 0x65, 0x0e, 0x32, 0xbe, 0x46, 0xb0, 0xcb, 0xbc, 0x8b, 0x9e, 0x27, 0x3e, 0xc6, 0x9b, 0xc1, 0x3c, 0x60, 0x26, 0xf7, 0x3c, 0x7f, 0xb6, 0x8a, 0xbd, 0x7d, 0x9c, 0x7c, 0x3e, 0x60, 0x06, 0x59, 0xbe, 0x18, 0x14, 0xe6, 0xbc, 0x41, 0xe5, 0xdb, 0x3d, 0x84, 0x4f, 0xbb, 0x3d, 0x16, 0x04, 0x47, 0xbb, 0x4f, 0xa9, 0x2b, 0xbb, 0xaa, 0xc9, 0xae, 0xb9, 0x1e, 0x62, 0x05, 0x3f, 0x32, 0x56, 0x49, 0x3e, 0x79, 0x5f, 0x26, 0x3a, 0x6b, 0x4a, 0x08, 0xb9, 0x67, 0x0d, 0xea, 0xb9, 0x5e, 0xd6, 0xcd, 0x3a, 0x9d, 0xba, 0xab, 0x3a, 0x89, 0xee, 0xf4, 0x3e, 0xd0, 0xd3, 0xa7, 0xba, 0xf3, 0xa6, 0xb4, 0x3b, 0x1a, 0xb7, 0xdb, 0x3a, 0xf2, 0xf7, 0xff, 0xff, 0x04, 0x00, 0x00, 0x00, 0x00, 0x08, 0x00, 0x00, 0x08, 0x2e, 0x89, 0x3b, 0x1f, 0x2b, 0xa2, 0x3c, 0xaa, 0xdf, 0x42, 0xbe, 0x59, 0xe3, 0xa9, 0x3d, 0xcf, 0x79, 0x81, 0x3d, 0x76, 0xd4, 0xa2, 0xbf, 0x29, 0x5d, 0xe0, 0x3d, 0xd9, 0x92, 0x33, 0xbe, 0x22, 0x08, 0x9b, 0x3d, 0x5b, 0xe9, 0x2c, 0xbe, 0x85, 0xf1, 0x5e, 0xbf, 0x97, 0xbf, 0x2c, 0x3d, 0x73, 0x69, 0x4c, 0xbd, 0x09, 0x13, 0x26, 0xbe, 0xba, 0x93, 0x36, 0x3e, 0x88, 0x73, 0x07, 0xbd, 0x00, 0xff, 0x3c, 0x3d, 0x69, 0xd4, 0xf0, 0x3d, 0x98, 0xa1, 0xc1, 0xbe, 0xf9, 0xcc, 0xb8, 0x3e, 0xad, 0xcb, 0x32, 0x3e, 0x94, 0xec, 0x6b, 0xbe, 0x02, 0xa8, 0x1e, 0x3e, 0xef, 0x83, 0x78, 0x3e, 0xca, 0x54, 0x8b, 0x3e, 0xb0, 0xbc, 0xd7, 0xbd, 0x4f, 0x4b, 0x50, 0xbe, 0x61, 0x55, 0xc7, 0xbd, 0xef, 0x5f, 0x6a, 0x3d, 0x39, 0x4f, 0xb9, 0xbd, 0x41, 0xf4, 0x0e, 0xbd, 0x98, 0xbf, 0xd8, 0xbc, 0x3c, 0x20, 0xcb, 0x3d, 0x8c, 0x12, 0x0f, 0xbe, 0x49, 0xb6, 0x3d, 0xbd, 0x6f, 0xd4, 0x72, 0x3e, 0x46, 0xc0, 0x3c, 0xbd, 0xa3, 0x7d, 0xa9, 0xbd, 0xdf, 0xe7, 0x3b, 0x3e, 0xc5, 0xc6, 0xe4, 0x3d, 0xf3, 0xac, 0x55, 0x3e, 0xa0, 0x20, 0x2c, 0x3d, 0xc3, 0x0f, 0x66, 0x3e, 0x41, 0xde, 0x7e, 0x3e, 0x4e, 0x8b, 0x96, 0x3c, 0x42, 0x02, 0x37, 0x3d, 0x6d, 0x28, 0xb5, 0x3d, 0xfa, 0xcb, 0xdf, 0x3d, 0x41, 0xd2, 0xbb, 0x3d, 0x76, 0x35, 0x07, 0x3f, 0xf2, 0xa5, 0x0f, 0xbd, 0x29, 0x46, 0xa9, 0xbd, 0xda, 0xc2, 0x28, 0x3d, 0xe1, 0xd5, 0xc3, 0x3d, 0x30, 0x35, 0xf9, 0xbc, 0x59, 0x70, 0x33, 0x3e, 0xe1, 0x5f, 0x9f, 0xbd, 0x64, 0x21, 0x93, 0x3e, 0xd7, 0xd5, 0x46, 0x3c, 0x3d, 0xb2, 0x8b, 0xbd, 0x1a, 0x91, 0x13, 0x3d, 0x42, 0x16, 0xd1, 0xbd, 0x6b, 0x19, 0x10, 0x3d, 0x00, 0x58, 0x96, 0xbd, 0xa4, 0xb5, 0xbc, 0xbe, 0x40, 0x28, 0xa2, 0xbc, 0x5d, 0xdb, 0x1d, 0x3e, 0x63, 0xd4, 0x2f, 0xbd, 0x64, 0x6d, 0x4f, 0xbd, 0x64, 0xa2, 0x7c, 0x3d, 0xec, 0xda, 0x08, 0xbe, 0xcc, 0x7b, 0x1e, 0xbc, 0xa6, 0x0c, 0x01, 0xbe, 0x3a, 0x98, 0xdb, 0x3c, 0x29, 0x87, 0xbc, 0xbd, 0xa6, 0x3c, 0x07, 0xbe, 0x6e, 0xee, 0x4e, 0x3c, 0x1d, 0xa6, 0x80, 0x3e, 0x88, 0xa5, 0xd6, 0xbe, 0x9b, 0x3b, 0xa2, 0x3d, 0xcf, 0xa5, 0xa5, 0x3e, 0x55, 0x3f, 0x87, 0x3d, 0x4f, 0xeb, 0x16, 0x3e, 0x1b, 0x7a, 0x74, 0xbe, 0xbd, 0x64, 0x18, 0xbe, 0xce, 0x55, 0x00, 0xbd, 0xfd, 0x59, 0x8b, 0xbe, 0x73, 0x30, 0xdd, 0xbe, 0xb3, 0xf2, 0x9a, 0x3d, 0x12, 0x2a, 0x34, 0xbd, 0xf7, 0x86, 0x72, 0x3d, 0xe1, 0xe3, 0x1d, 0xbe, 0x93, 0x10, 0x13, 0xbe, 0x5b, 0xb0, 0x01, 0xbe, 0x8d, 0xca, 0xcc, 0x3e, 0x92, 0xcb, 0xba, 0xbd, 0xad, 0x99, 0x0b, 0xbe, 0x6f, 0xb9, 0x87, 0x3d, 0xda, 0x87, 0x15, 0x3b, 0x20, 0x73, 0x2d, 0xbd, 0x69, 0xb7, 0x8e, 0xbe, 0x3c, 0x5c, 0xb1, 0xbb, 0xb0, 0x86, 0x2c, 0x3e, 0x7e, 0x37, 0x95, 0xbd, 0xb1, 0x73, 0x17, 0xbf, 0x1c, 0x09, 0x03, 0xbe, 0xfc, 0x1d, 0x67, 0x3d, 0xf8, 0x92, 0x10, 0xbf, 0x0d, 0x54, 0xc6, 0xbd, 0x2f, 0xe5, 0x28, 0xbf, 0x40, 0x1b, 0x33, 0xbd, 0xfd, 0x39, 0xaf, 0xbd, 0x66, 0x64, 0x4f, 0x3e, 0x62, 0x28, 0x11, 0xbe, 0x07, 0xe3, 0x5e, 0x3d, 0xc5, 0xe6, 0xb0, 0xbc, 0x1d, 0xb7, 0xf6, 0xbe, 0x9e, 0x11, 0x1e, 0x3e, 0x03, 0xec, 0x10, 0x3d, 0x61, 0xea, 0x56, 0x3e, 0x10, 0x13, 0x4d, 0xbd, 0xa4, 0x96, 0x9f, 0xbd, 0xc3, 0xee, 0x93, 0x3d, 0x22, 0xea, 0x8d, 0x3e, 0xec, 0x15, 0x2e, 0xbe, 0x1b, 0x4e, 0x14, 0xbe, 0xaf, 0xae, 0xbc, 0x3d, 0x1a, 0xee, 0xaa, 0xbe, 0xc8, 0x9e, 0xa1, 0x3e, 0xce, 0x64, 0x1f, 0x3d, 0x02, 0x60, 0xf0, 0x3b, 0x62, 0x88, 0x19, 0x3e, 0xee, 0x5a, 0x3d, 0xbe, 0x96, 0x53, 0x87, 0xbd, 0xd4, 0xa7, 0x07, 0xbd, 0x7d, 0xbb, 0xeb, 0xbd, 0x63, 0xac, 0xbe, 0xbd, 0x01, 0xd2, 0xb5, 0x3d, 0x7b, 0x85, 0xe3, 0xbc, 0xb6, 0x4a, 0xa0, 0x3c, 0x04, 0x73, 0xcd, 0xbd, 0x96, 0x41, 0xe1, 0x3c, 0xce, 0x1b, 0xfa, 0x3d, 0x59, 0xf5, 0x0b, 0x3e, 0x35, 0x99, 0x03, 0xbe, 0xa7, 0x13, 0xac, 0x3e, 0x20, 0x35, 0x2e, 0xbf, 0x2c, 0x56, 0x19, 0x3d, 0x18, 0xbb, 0x47, 0xb9, 0xbc, 0xa0, 0x38, 0x3c, 0xa6, 0x56, 0x4f, 0xbd, 0xd9, 0x04, 0x26, 0xbe, 0x1b, 0x86, 0x9f, 0x3c, 0x50, 0x09, 0x0b, 0x3e, 0x3a, 0x96, 0xcb, 0xbe, 0x11, 0x50, 0x03, 0xbb, 0x54, 0x0c, 0xc6, 0x3c, 0x40, 0xd3, 0xac, 0x3d, 0xb9, 0x05, 0xb5, 0xbc, 0x7f, 0xc6, 0xe1, 0xbc, 0xdc, 0xca, 0x2f, 0x3d, 0x38, 0x21, 0xea, 0x3b, 0x95, 0x19, 0x95, 0xbe, 0x1f, 0xa4, 0x23, 0xbe, 0x01, 0x5e, 0xbc, 0x3d, 0xd8, 0x57, 0x85, 0xbe, 0x20, 0xd8, 0x9c, 0x3e, 0x03, 0x26, 0x90, 0x3c, 0x60, 0x81, 0x79, 0x3d, 0x9a, 0x59, 0x23, 0x3e, 0x7c, 0x38, 0x44, 0xbf, 0x08, 0xc8, 0x1d, 0xbe, 0xef, 0x61, 0xac, 0x3d, 0xe7, 0x66, 0x18, 0xbf, 0x63, 0x2b, 0x02, 0x3e, 0x97, 0x87, 0x2b, 0xbe, 0x38, 0xa2, 0xca, 0xbe, 0x7c, 0x45, 0xc0, 0x3c, 0x97, 0x16, 0x8e, 0x3d, 0xc2, 0x8a, 0xff, 0xbd, 0xbf, 0x7e, 0x15, 0xbe, 0xe6, 0xf7, 0xd0, 0xbd, 0xe1, 0x4b, 0x12, 0x3e, 0x4d, 0xa4, 0x7f, 0x3d, 0xf9, 0x15, 0xfe, 0x3e, 0x8d, 0x1a, 0x7d, 0xbd, 0xd6, 0xa4, 0x0e, 0x3e, 0xd6, 0x85, 0xa9, 0xbe, 0xcb, 0x07, 0xb8, 0x3e, 0xf5, 0x3f, 0x0f, 0x3e, 0xde, 0xa1, 0x36, 0xbe, 0x9d, 0xca, 0xf8, 0x3d, 0x4a, 0x86, 0x21, 0x3e, 0x40, 0xf5, 0xec, 0x3c, 0x1d, 0x34, 0x61, 0xbd, 0xd4, 0x8a, 0x8e, 0x3e, 0x2e, 0xe5, 0x40, 0x3c, 0x0e, 0x2c, 0x53, 0xbe, 0x9f, 0x9f, 0x8e, 0xbe, 0x7b, 0xf1, 0xcc, 0xbd, 0xa1, 0x01, 0x42, 0xbf, 0xf9, 0xd6, 0x75, 0xbe, 0x1e, 0x6a, 0x20, 0x3d, 0x3c, 0x04, 0x34, 0xbf, 0x7c, 0x19, 0x4b, 0x3e, 0x14, 0x98, 0xc5, 0x3e, 0xc6, 0x7d, 0xb9, 0x3e, 0x74, 0x73, 0xb8, 0xbd, 0x4d, 0x21, 0x66, 0x3b, 0xd8, 0x48, 0x28, 0xbe, 0x19, 0x3e, 0x61, 0xbe, 0xb4, 0xa1, 0x13, 0x3e, 0x61, 0x1c, 0x95, 0xbe, 0x2a, 0xa2, 0xee, 0x3d, 0x1a, 0x18, 0x84, 0x3e, 0xab, 0x43, 0x8b, 0x3e, 0x30, 0xd0, 0xa3, 0xbe, 0xe6, 0x5d, 0xe3, 0x3d, 0xfb, 0x4d, 0x23, 0xbd, 0xa1, 0x98, 0xe4, 0x3d, 0x1a, 0x84, 0x10, 0xbe, 0x80, 0x67, 0x5d, 0xbf, 0xf6, 0x28, 0xdd, 0x3e, 0x48, 0xef, 0xc7, 0xbe, 0x45, 0x52, 0x3f, 0xbd, 0xda, 0x6c, 0x7e, 0xbe, 0xe7, 0xd2, 0x3f, 0xbf, 0x34, 0xb2, 0xb1, 0x3c, 0xc8, 0x18, 0xba, 0xbc, 0x28, 0x1a, 0xcf, 0xbb, 0xc2, 0x40, 0xad, 0xbe, 0xd5, 0x91, 0x48, 0x3d, 0x30, 0xd4, 0xbe, 0xbb, 0xe8, 0x67, 0x56, 0x3f, 0x8e, 0x3c, 0xd5, 0xbe, 0xb2, 0x12, 0xd7, 0xbc, 0x1b, 0x3a, 0x30, 0xbb, 0x41, 0x72, 0x24, 0xbe, 0xe0, 0x47, 0xaf, 0xbd, 0x54, 0x0b, 0xa4, 0xbe, 0x73, 0xaf, 0x1c, 0xbe, 0x0c, 0x1e, 0x87, 0x3b, 0x82, 0x18, 0x86, 0x3d, 0x67, 0x74, 0x50, 0xbd, 0xb3, 0x21, 0x38, 0x3b, 0xd4, 0x39, 0xbb, 0x3c, 0x77, 0x2b, 0x57, 0xbd, 0xf9, 0x43, 0x29, 0xbd, 0x0b, 0x5d, 0x56, 0xbe, 0x20, 0xbe, 0x6a, 0xbc, 0x67, 0xcf, 0xe3, 0xbd, 0xbb, 0x1e, 0xac, 0xbe, 0x57, 0xb7, 0xbd, 0xbe, 0xed, 0xd2, 0xd6, 0xbb, 0x1d, 0x46, 0x86, 0xbc, 0x43, 0x63, 0xf5, 0xbd, 0xe2, 0x59, 0xf5, 0x3c, 0x12, 0xe0, 0x88, 0x3d, 0xe5, 0x09, 0xee, 0x3d, 0x7d, 0xab, 0x23, 0x3d, 0x6d, 0xad, 0xb9, 0xbe, 0xc4, 0x5c, 0xe5, 0x3d, 0xc5, 0x41, 0x46, 0x3e, 0x00, 0x1d, 0x61, 0x3e, 0x57, 0x18, 0x0a, 0x3f, 0x39, 0x83, 0xb7, 0xbc, 0xad, 0xf8, 0x78, 0x3d, 0x40, 0x6f, 0xf1, 0x3d, 0xd7, 0x32, 0x2e, 0xbe, 0x3f, 0x2b, 0x46, 0xbd, 0x18, 0x1e, 0x0f, 0x3c, 0xae, 0x79, 0x48, 0x3b, 0x24, 0x04, 0x96, 0x3e, 0x42, 0xd9, 0x29, 0x3e, 0x31, 0x90, 0x18, 0xbe, 0x25, 0xdd, 0x35, 0xbc, 0x07, 0x0d, 0xc0, 0xbd, 0xac, 0x9b, 0x58, 0x3e, 0xc9, 0x55, 0xa2, 0xbd, 0xe0, 0x22, 0x43, 0x3e, 0x32, 0xef, 0x22, 0x3d, 0x61, 0xd7, 0x25, 0x3e, 0xeb, 0x5d, 0x0e, 0xbe, 0x80, 0x69, 0x1e, 0x3e, 0xb4, 0xbb, 0x0b, 0x3e, 0x71, 0xac, 0xa5, 0x3d, 0xf9, 0x53, 0x4a, 0xbf, 0x4c, 0xe7, 0x07, 0x3e, 0x14, 0x26, 0x25, 0x3e, 0x7c, 0xcb, 0x25, 0x3e, 0x40, 0x35, 0xc8, 0x3d, 0x1e, 0x25, 0x23, 0xbe, 0x5b, 0x87, 0x22, 0x3e, 0x13, 0x73, 0xbd, 0xbc, 0x16, 0xc1, 0x47, 0xbe, 0x1a, 0xb0, 0x39, 0xbe, 0x97, 0x0d, 0xa2, 0x3e, 0x11, 0xaa, 0x42, 0x3d, 0x89, 0xc0, 0x32, 0xbd, 0x97, 0x36, 0x17, 0x3e, 0x62, 0xc0, 0x38, 0x3e, 0x99, 0x6e, 0x3c, 0x3d, 0xd5, 0xe6, 0x30, 0x3e, 0x60, 0x65, 0x6e, 0xba, 0x3b, 0xcd, 0x1a, 0x3e, 0x2a, 